{
  "<PAD>": 0,
  "<UNK>": 1,
  "<BOS>": 2,
  "<EOS>": 3,
  "!": 4,
  "\"": 5,
  "#": 6,
  "$": 7,
  "%": 8,
  "&": 9,
  "'": 10,
  "(": 11,
  ")": 12,
  "*": 13,
  "+": 14,
  ",": 15,
  "-": 16,
  ".": 17,
  "/": 18,
  "0": 19,
  "1": 20,
  "2": 21,
  "3": 22,
  "4": 23,
  "5": 24,
  "6": 25,
  "7": 26,
  "8": 27,
  "9": 28,
  ":": 29,
  ";": 30,
  "<": 31,
  "</w>": 32,
  "=": 33,
  ">": 34,
  "?": 35,
  "@": 36,
  "A": 37,
  "B": 38,
  "C": 39,
  "D": 40,
  "E": 41,
  "F": 42,
  "G": 43,
  "H": 44,
  "I": 45,
  "J": 46,
  "K": 47,
  "L": 48,
  "M": 49,
  "N": 50,
  "O": 51,
  "P": 52,
  "Q": 53,
  "R": 54,
  "S": 55,
  "T": 56,
  "U": 57,
  "V": 58,
  "W": 59,
  "X": 60,
  "Y": 61,
  "Z": 62,
  "[": 63,
  "\\": 64,
  "]": 65,
  "^": 66,
  "_": 67,
  "`": 68,
  "a": 69,
  "b": 70,
  "c": 71,
  "d": 72,
  "e": 73,
  "f": 74,
  "g": 75,
  "h": 76,
  "i": 77,
  "j": 78,
  "k": 79,
  "l": 80,
  "m": 81,
  "n": 82,
  "o": 83,
  "p": 84,
  "q": 85,
  "r": 86,
  "s": 87,
  "t": 88,
  "u": 89,
  "v": 90,
  "w": 91,
  "x": 92,
  "y": 93,
  "z": 94,
  "{": 95,
  "|": 96,
  "}": 97,
  "~": 98,
  "£": 99,
  "«": 100,
  "°": 101,
  "²": 102,
  "´": 103,
  "µ": 104,
  "·": 105,
  "¹": 106,
  "º": 107,
  "»": 108,
  "¼": 109,
  "½": 110,
  "¾": 111,
  "¿": 112,
  "À": 113,
  "Á": 114,
  "Â": 115,
  "Å": 116,
  "É": 117,
  "Í": 118,
  "Ð": 119,
  "Ó": 120,
  "×": 121,
  "à": 122,
  "á": 123,
  "â": 124,
  "ã": 125,
  "ä": 126,
  "å": 127,
  "æ": 128,
  "ç": 129,
  "è": 130,
  "é": 131,
  "ê": 132,
  "ì": 133,
  "í": 134,
  "î": 135,
  "ï": 136,
  "ð": 137,
  "ñ": 138,
  "ò": 139,
  "ó": 140,
  "ô": 141,
  "õ": 142,
  "ö": 143,
  "ø": 144,
  "ù": 145,
  "ú": 146,
  "û": 147,
  "ü": 148,
  "ā": 149,
  "ă": 150,
  "ć": 151,
  "Č": 152,
  "č": 153,
  "ē": 154,
  "ė": 155,
  "ę": 156,
  "ě": 157,
  "ğ": 158,
  "ī": 159,
  "ı": 160,
  "Ķ": 161,
  "Ł": 162,
  "ł": 163,
  "ň": 164,
  "Ō": 165,
  "ō": 166,
  "ŏ": 167,
  "ř": 168,
  "š": 169,
  "ţ": 170,
  "ũ": 171,
  "ū": 172,
  "ź": 173,
  "ż": 174,
  "Ž": 175,
  "ž": 176,
  "ſ": 177,
  "ơ": 178,
  "ǔ": 179,
  "ț": 180,
  "ɐ": 181,
  "ɑ": 182,
  "ɔ": 183,
  "ɕ": 184,
  "ə": 185,
  "ɛ": 186,
  "ɣ": 187,
  "ɪ": 188,
  "ɯ": 189,
  "ɾ": 190,
  "ʁ": 191,
  "ʃ": 192,
  "ʊ": 193,
  "ʑ": 194,
  "ʒ": 195,
  "ʝ": 196,
  "ʰ": 197,
  "ʲ": 198,
  "ʻ": 199,
  "ˈ": 200,
  "ː": 201,
  "́": 202,
  "̂": 203,
  "̃": 204,
  "̇": 205,
  "̯": 206,
  "έ": 207,
  "ί": 208,
  "α": 209,
  "β": 210,
  "γ": 211,
  "ε": 212,
  "λ": 213,
  "μ": 214,
  "ν": 215,
  "ο": 216,
  "π": 217,
  "ρ": 218,
  "τ": 219,
  "υ": 220,
  "χ": 221,
  "ω": 222,
  "А": 223,
  "Б": 224,
  "В": 225,
  "Г": 226,
  "К": 227,
  "Л": 228,
  "О": 229,
  "С": 230,
  "У": 231,
  "Ц": 232,
  "Ш": 233,
  "а": 234,
  "б": 235,
  "в": 236,
  "д": 237,
  "е": 238,
  "ж": 239,
  "з": 240,
  "и": 241,
  "й": 242,
  "к": 243,
  "л": 244,
  "м": 245,
  "н": 246,
  "о": 247,
  "р": 248,
  "с": 249,
  "т": 250,
  "у": 251,
  "ч": 252,
  "щ": 253,
  "ы": 254,
  "ь": 255,
  "ю": 256,
  "я": 257,
  "і": 258,
  "ح": 259,
  "د": 260,
  "س": 261,
  "م": 262,
  "ن": 263,
  "ي": 264,
  "त": 265,
  "म": 266,
  "य": 267,
  "व": 268,
  "ि": 269,
  "्": 270,
  "ತ": 271,
  "ಮ": 272,
  "ರ": 273,
  "ಶ": 274,
  "ಸ": 275,
  "ಾ": 276,
  "ೈ": 277,
  "್": 278,
  "സ": 279,
  "ോ": 280,
  "ൺ": 281,
  "ก": 282,
  "ข": 283,
  "ค": 284,
  "ง": 285,
  "จ": 286,
  "ช": 287,
  "ณ": 288,
  "ด": 289,
  "ต": 290,
  "ท": 291,
  "ธ": 292,
  "น": 293,
  "บ": 294,
  "ฝ": 295,
  "พ": 296,
  "ฟ": 297,
  "ภ": 298,
  "ม": 299,
  "ย": 300,
  "ร": 301,
  "ฤ": 302,
  "ล": 303,
  "ว": 304,
  "ศ": 305,
  "ษ": 306,
  "ส": 307,
  "ห": 308,
  "อ": 309,
  "ฮ": 310,
  "ะ": 311,
  "ั": 312,
  "า": 313,
  "ำ": 314,
  "ิ": 315,
  "ี": 316,
  "ื": 317,
  "ุ": 318,
  "ู": 319,
  "เ": 320,
  "แ": 321,
  "โ": 322,
  "ไ": 323,
  "ๅ": 324,
  "่": 325,
  "้": 326,
  "က": 327,
  "ခ": 328,
  "တ": 329,
  "ဝ": 330,
  "ိ": 331,
  "ု": 332,
  "်": 333,
  "ữ": 334,
  "​": 335,
  "‍": 336,
  "‐": 337,
  "‑": 338,
  "–": 339,
  "—": 340,
  "―": 341,
  "‘": 342,
  "’": 343,
  "“": 344,
  "”": 345,
  "†": 346,
  "‡": 347,
  "•": 348,
  "…": 349,
  "′": 350,
  "⁄": 351,
  "⁠": 352,
  "⁺": 353,
  "⁽": 354,
  "⁾": 355,
  "€": 356,
  "₱": 357,
  "™": 358,
  "←": 359,
  "→": 360,
  "∆": 361,
  "−": 362,
  "∴": 363,
  "≈": 364,
  "≤": 365,
  "★": 366,
  "☜": 367,
  "☝": 368,
  "☠": 369,
  "☺": 370,
  "♂": 371,
  "⚠": 372,
  "⠀": 373,
  "、": 374,
  "。": 375,
  "「": 376,
  "」": 377,
  "あ": 378,
  "い": 379,
  "う": 380,
  "か": 381,
  "が": 382,
  "き": 383,
  "く": 384,
  "け": 385,
  "げ": 386,
  "こ": 387,
  "し": 388,
  "す": 389,
  "せ": 390,
  "た": 391,
  "ち": 392,
  "っ": 393,
  "つ": 394,
  "て": 395,
  "で": 396,
  "と": 397,
  "な": 398,
  "に": 399,
  "ね": 400,
  "の": 401,
  "は": 402,
  "び": 403,
  "ま": 404,
  "み": 405,
  "め": 406,
  "も": 407,
  "よ": 408,
  "ら": 409,
  "り": 410,
  "る": 411,
  "れ": 412,
  "ろ": 413,
  "わ": 414,
  "を": 415,
  "イ": 416,
  "エ": 417,
  "キ": 418,
  "ク": 419,
  "グ": 420,
  "シ": 421,
  "ズ": 422,
  "タ": 423,
  "ッ": 424,
  "ボ": 425,
  "ム": 426,
  "ヮ": 427,
  "ン": 428,
  "一": 429,
  "七": 430,
  "三": 431,
  "上": 432,
  "下": 433,
  "世": 434,
  "両": 435,
  "並": 436,
  "中": 437,
  "丸": 438,
  "丽": 439,
  "之": 440,
  "乱": 441,
  "五": 442,
  "井": 443,
  "亮": 444,
  "人": 445,
  "他": 446,
  "代": 447,
  "以": 448,
  "会": 449,
  "伝": 450,
  "伟": 451,
  "体": 452,
  "作": 453,
  "俵": 454,
  "倒": 455,
  "先": 456,
  "光": 457,
  "免": 458,
  "兎": 459,
  "共": 460,
  "兵": 461,
  "具": 462,
  "内": 463,
  "再": 464,
  "冶": 465,
  "出": 466,
  "分": 467,
  "刈": 468,
  "初": 469,
  "判": 470,
  "制": 471,
  "則": 472,
  "前": 473,
  "剛": 474,
  "力": 475,
  "功": 476,
  "助": 477,
  "効": 478,
  "化": 479,
  "十": 480,
  "千": 481,
  "半": 482,
  "双": 483,
  "反": 484,
  "取": 485,
  "受": 486,
  "古": 487,
  "合": 488,
  "名": 489,
  "和": 490,
  "善": 491,
  "嘉": 492,
  "四": 493,
  "回": 494,
  "固": 495,
  "国": 496,
  "地": 497,
  "型": 498,
  "場": 499,
  "士": 500,
  "外": 501,
  "多": 502,
  "大": 503,
  "天": 504,
  "太": 505,
  "夫": 506,
  "女": 507,
  "姿": 508,
  "子": 509,
  "字": 510,
  "学": 511,
  "安": 512,
  "定": 513,
  "家": 514,
  "寝": 515,
  "寺": 516,
  "対": 517,
  "専": 518,
  "導": 519,
  "小": 520,
  "尚": 521,
  "山": 522,
  "崩": 523,
  "嵐": 524,
  "巴": 525,
  "巻": 526,
  "市": 527,
  "帝": 528,
  "帯": 529,
  "平": 530,
  "年": 531,
  "幸": 532,
  "庁": 533,
  "座": 534,
  "廻": 535,
  "式": 536,
  "引": 537,
  "张": 538,
  "弥": 539,
  "張": 540,
  "当": 541,
  "形": 542,
  "彩": 543,
  "影": 544,
  "後": 545,
  "応": 546,
  "怪": 547,
  "慎": 548,
  "成": 549,
  "戦": 550,
  "手": 551,
  "打": 552,
  "払": 553,
  "技": 554,
  "抑": 555,
  "投": 556,
  "抱": 557,
  "拳": 558,
  "指": 559,
  "挟": 560,
  "挫": 561,
  "捕": 562,
  "捨": 563,
  "掛": 564,
  "掬": 565,
  "支": 566,
  "教": 567,
  "整": 568,
  "斜": 569,
  "新": 570,
  "方": 571,
  "日": 572,
  "昌": 573,
  "明": 574,
  "星": 575,
  "書": 576,
  "月": 577,
  "有": 578,
  "木": 579,
  "本": 580,
  "术": 581,
  "朽": 582,
  "束": 583,
  "松": 584,
  "果": 585,
  "架": 586,
  "柔": 587,
  "栄": 588,
  "校": 589,
  "格": 590,
  "森": 591,
  "検": 592,
  "極": 593,
  "榜": 594,
  "樁": 595,
  "横": 596,
  "檀": 597,
  "正": 598,
  "武": 599,
  "段": 600,
  "気": 601,
  "水": 602,
  "永": 603,
  "河": 604,
  "治": 605,
  "況": 606,
  "泉": 607,
  "法": 608,
  "泰": 609,
  "津": 610,
  "活": 611,
  "流": 612,
  "浮": 613,
  "瀼": 614,
  "燕": 615,
  "片": 616,
  "物": 617,
  "状": 618,
  "独": 619,
  "獄": 620,
  "球": 621,
  "生": 622,
  "用": 623,
  "田": 624,
  "甲": 625,
  "町": 626,
  "畑": 627,
  "異": 628,
  "眉": 629,
  "着": 630,
  "睾": 631,
  "矢": 632,
  "研": 633,
  "称": 634,
  "移": 635,
  "種": 636,
  "稽": 637,
  "究": 638,
  "突": 639,
  "立": 640,
  "站": 641,
  "第": 642,
  "等": 643,
  "節": 644,
  "精": 645,
  "約": 646,
  "納": 647,
  "級": 648,
  "組": 649,
  "結": 650,
  "絞": 651,
  "続": 652,
  "総": 653,
  "緘": 654,
  "縄": 655,
  "縦": 656,
  "續": 657,
  "纏": 658,
  "羽": 659,
  "股": 660,
  "肩": 661,
  "育": 662,
  "背": 663,
  "胴": 664,
  "胸": 665,
  "能": 666,
  "脚": 667,
  "腋": 668,
  "腕": 669,
  "腰": 670,
  "腹": 671,
  "腿": 672,
  "膝": 673,
  "自": 674,
  "落": 675,
  "葉": 676,
  "虎": 677,
  "蟹": 678,
  "行": 679,
  "術": 680,
  "衛": 681,
  "衣": 682,
  "袈": 683,
  "袖": 684,
  "裏": 685,
  "裟": 686,
  "裸": 687,
  "裹": 688,
  "襟": 689,
  "視": 690,
  "観": 691,
  "角": 692,
  "討": 693,
  "許": 694,
  "試": 695,
  "誘": 696,
  "講": 697,
  "警": 698,
  "護": 699,
  "谷": 700,
  "負": 701,
  "起": 702,
  "足": 703,
  "跳": 704,
  "踵": 705,
  "蹴": 706,
  "身": 707,
  "車": 708,
  "転": 709,
  "込": 710,
  "返": 711,
  "送": 712,
  "逆": 713,
  "透": 714,
  "道": 715,
  "郎": 716,
  "部": 717,
  "重": 718,
  "野": 719,
  "金": 720,
  "釣": 721,
  "鈷": 722,
  "鐘": 723,
  "鑑": 724,
  "門": 725,
  "間": 726,
  "関": 727,
  "闘": 728,
  "院": 729,
  "隅": 730,
  "雄": 731,
  "電": 732,
  "霞": 733,
  "鞭": 734,
  "音": 735,
  "頑": 736,
  "頸": 737,
  "顎": 738,
  "飛": 739,
  "館": 740,
  "骨": 741,
  "高": 742,
  "鳥": 743,
  "黒": 744,
  "龍": 745,
  "ꜜ": 746,
  "기": 747,
  "담": 748,
  "도": 749,
  "돌": 750,
  "등": 751,
  "려": 752,
  "른": 753,
  "막": 754,
  "무": 755,
  "발": 756,
  "빠": 757,
  "서": 758,
  "술": 759,
  "에": 760,
  "예": 761,
  "유": 762,
  "이": 763,
  "차": 764,
  "타": 765,
  "화": 766,
  "️": 767,
  "﻿": 768,
  "（": 769,
  "）": 770,
  "～": 771,
  "ﾟ": 772,
  "𝓬": 773,
  "𝓮": 774,
  "𝓲": 775,
  "𝓷": 776,
  "𝘏": 777,
  "𝘢": 778,
  "𝘥": 779,
  "𝘦": 780,
  "🏴": 781,
  "🏻": 782,
  "🏼": 783,
  "🏾": 784,
  "👀": 785,
  "👊": 786,
  "👍": 787,
  "👏": 788,
  "💀": 789,
  "💦": 790,
  "💩": 791,
  "💪": 792,
  "💯": 793,
  "🔎": 794,
  "🔥": 795,
  "😁": 796,
  "😂": 797,
  "😃": 798,
  "😅": 799,
  "😆": 800,
  "😉": 801,
  "😌": 802,
  "😎": 803,
  "😔": 804,
  "😜": 805,
  "😢": 806,
  "😭": 807,
  "😮": 808,
  "😲": 809,
  "😳": 810,
  "🙏": 811,
  "🤔": 812,
  "🤝": 813,
  "🤣": 814,
  "🤦": 815,
  "🤯": 816,
  "🤷": 817,
  "🥊": 818,
  "e</w>": 819,
  "t</w>": 820,
  "th": 821,
  "s</w>": 822,
  "in": 823,
  "d</w>": 824,
  "ou": 825,
  "an": 826,
  "o</w>": 827,
  "er": 828,
  "y</w>": 829,
  ".</w>": 830,
  "on": 831,
  "ing": 832,
  "ing</w>": 833,
  "the</w>": 834,
  "you": 835,
  "to</w>": 836,
  "en": 837,
  "or": 838,
  ",</w>": 839,
  "at</w>": 840,
  "a</w>": 841,
  "and</w>": 842,
  "ll": 843,
  "is</w>": 844,
  "ar": 845,
  "f</w>": 846,
  "ow": 847,
  "gh": 848,
  "you</w>": 849,
  "'s</w>": 850,
  "re": 851,
  "m</w>": 852,
  "igh": 853,
  "at": 854,
  "er</w>": 855,
  "li": 856,
  "I</w>": 857,
  "st": 858,
  "in</w>": 859,
  "k</w>": 860,
  "ch": 861,
  "t;": 862,
  "&g": 863,
  "&gt;": 864,
  "that</w>": 865,
  "of</w>": 866,
  "wh": 867,
  "it": 868,
  "on</w>": 869,
  "us": 870,
  "ed</w>": 871,
  "go": 872,
  "ow</w>": 873,
  "om": 874,
  "it</w>": 875,
  "as</w>": 876,
  "ll</w>": 877,
  "en</w>": 878,
  "ke</w>": 879,
  "ight</w>": 880,
  "le": 881,
  "ve</w>": 882,
  "al": 883,
  "or</w>": 884,
  "be": 885,
  "an</w>": 886,
  "ac": 887,
  "es</w>": 888,
  "ic": 889,
  "p</w>": 890,
  "ro": 891,
  "le</w>": 892,
  "ha": 893,
  "ea": 894,
  "he</w>": 895,
  "like</w>": 896,
  "wi": 897,
  "se": 898,
  "th</w>": 899,
  "lo": 900,
  "ti": 901,
  "kn": 902,
  "ut</w>": 903,
  "the": 904,
  "re</w>": 905,
  "r</w>": 906,
  "ere</w>": 907,
  "this</w>": 908,
  "ab": 909,
  "&gt;</w>": 910,
  "&gt;&gt;</w>": 911,
  "ge": 912,
  "st</w>": 913,
  "we": 914,
  "so</w>": 915,
  "bo": 916,
  "'t</w>": 917,
  "sh": 918,
  "for</w>": 919,
  "un": 920,
  "me</w>": 921,
  "e's</w>": 922,
  "ay</w>": 923,
  "out</w>": 924,
  "with</w>": 925,
  "all": 926,
  "el": 927,
  "be</w>": 928,
  "si": 929,
  "I'": 930,
  "was</w>": 931,
  "'re</w>": 932,
  "ch</w>": 933,
  "ust</w>": 934,
  "ot</w>": 935,
  "ev": 936,
  "h</w>": 937,
  "di": 938,
  "right</w>": 939,
  "but</w>": 940,
  "just</w>": 941,
  "com": 942,
  "ight": 943,
  "tr": 944,
  "se</w>": 945,
  "one</w>": 946,
  "ay": 947,
  "ld</w>": 948,
  "nd</w>": 949,
  "pp": 950,
  "de": 951,
  "tt": 952,
  "sp": 953,
  "know</w>": 954,
  "going</w>": 955,
  "ca": 956,
  "s.</w>": 957,
  "ag": 958,
  "it's</w>": 959,
  "his</w>": 960,
  "e.</w>": 961,
  "your</w>": 962,
  "do</w>": 963,
  "ally</w>": 964,
  "what</w>": 965,
  "su": 966,
  "all</w>": 967,
  "I'm</w>": 968,
  "gu": 969,
  "hi": 970,
  "we</w>": 971,
  "ly</w>": 972,
  "at's</w>": 973,
  "have</w>": 974,
  "not</w>": 975,
  "n</w>": 976,
  "som": 977,
  "get</w>": 978,
  "al</w>": 979,
  "oo": 980,
  "my</w>": 981,
  "am": 982,
  "if</w>": 983,
  "up</w>": 984,
  "wor": 985,
  "can</w>": 986,
  "rou": 987,
  "do": 988,
  "ent</w>": 989,
  "me": 990,
  "got</w>": 991,
  "ts</w>": 992,
  "ri": 993,
  "ex": 994,
  "king</w>": 995,
  "con": 996,
  "i</w>": 997,
  "op": 998,
  "ain": 999,
  "fe": 1000,
  "he's</w>": 1001,
  "ov": 1002,
  "g</w>": 1003,
  "ad": 1004,
  "ould</w>": 1005,
  "on't</w>": 1006,
  "for": 1007,
  "ack</w>": 1008,
  "thin": 1009,
  "rom</w>": 1010,
  "thing</w>": 1011,
  "use</w>": 1012,
  "from</w>": 1013,
  "are</w>": 1014,
  "ant</w>": 1015,
  "ds</w>": 1016,
  "as": 1017,
  "fi": 1018,
  "pe": 1019,
  "]</w>": 1020,
  "fight": 1021,
  "?</w>": 1022,
  "go</w>": 1023,
  "you're</w>": 1024,
  "ur": 1025,
  "don't</w>": 1026,
  "that's</w>": 1027,
  "when</w>": 1028,
  "ce</w>": 1029,
  "think</w>": 1030,
  "ion</w>": 1031,
  "ne": 1032,
  "Th": 1033,
  "And</w>": 1034,
  "ther</w>": 1035,
  "po": 1036,
  "d.</w>": 1037,
  "ta": 1038,
  "qu": 1039,
  "they</w>": 1040,
  "to": 1041,
  "ma": 1042,
  "s,</w>": 1043,
  "loo": 1044,
  "about</w>": 1045,
  "ther": 1046,
  "ra": 1047,
  "te": 1048,
  "ver": 1049,
  "ion": 1050,
  "back</w>": 1051,
  "cause</w>": 1052,
  "bod": 1053,
  "there</w>": 1054,
  "then</w>": 1055,
  "him</w>": 1056,
  "goo": 1057,
  "sa": 1058,
  "mor": 1059,
  "box": 1060,
  "now</w>": 1061,
  "fight</w>": 1062,
  "because</w>": 1063,
  "want</w>": 1064,
  "ent": 1065,
  "vi": 1066,
  "here</w>": 1067,
  "pun": 1068,
  "see</w>": 1069,
  "n't</w>": 1070,
  "own</w>": 1071,
  "yea": 1072,
  "ar</w>": 1073,
  "la": 1074,
  "mo": 1075,
  "You": 1076,
  "pro": 1077,
  "good</w>": 1078,
  "ke": 1079,
  "tw": 1080,
  "t's</w>": 1081,
  "ci": 1082,
  "really</w>": 1083,
  "more</w>": 1084,
  "l</w>": 1085,
  "uh</w>": 1086,
  "way</w>": 1087,
  "some": 1088,
  "hea": 1089,
  "body</w>": 1090,
  "ard</w>": 1091,
  "of": 1092,
  "ss</w>": 1093,
  "ind</w>": 1094,
  "yeah</w>": 1095,
  "t.</w>": 1096,
  "some</w>": 1097,
  "how</w>": 1098,
  "per": 1099,
  "ter": 1100,
  "time</w>": 1101,
  "el</w>": 1102,
  "mi": 1103,
  "ever": 1104,
  "ough": 1105,
  "de</w>": 1106,
  "peop": 1107,
  "know": 1108,
  "pre": 1109,
  "o,</w>": 1110,
  "by</w>": 1111,
  "ep</w>": 1112,
  "ttle</w>": 1113,
  "y.</w>": 1114,
  "cou": 1115,
  "w</w>": 1116,
  "people</w>": 1117,
  "two</w>": 1118,
  "You</w>": 1119,
  "little</w>": 1120,
  "um</w>": 1121,
  "h,</w>": 1122,
  "e,</w>": 1123,
  "0</w>": 1124,
  "he": 1125,
  "guy": 1126,
  "ter</w>": 1127,
  "im": 1128,
  "bi": 1129,
  "down</w>": 1130,
  "would</w>": 1131,
  "man": 1132,
  "act": 1133,
  "ut": 1134,
  "lot</w>": 1135,
  "ft</w>": 1136,
  "ever</w>": 1137,
  "ks</w>": 1138,
  "has</w>": 1139,
  "other</w>": 1140,
  "had</w>": 1141,
  "we're</w>": 1142,
  "been</w>": 1143,
  "very</w>": 1144,
  "and": 1145,
  "hand</w>": 1146,
  "ing.</w>": 1147,
  "pl": 1148,
  "He</w>": 1149,
  "into</w>": 1150,
  "mb": 1151,
  "sit": 1152,
  "gi": 1153,
  "punch": 1154,
  "ate</w>": 1155,
  "ld": 1156,
  "fir": 1157,
  "thr": 1158,
  "star": 1159,
  "rea": 1160,
  "come</w>": 1161,
  "ers</w>": 1162,
  "them</w>": 1163,
  "ang": 1164,
  "usic": 1165,
  "opp": 1166,
  "ff": 1167,
  "nb": 1168,
  "&nb": 1169,
  "&nbsp": 1170,
  "&nbsp;": 1171,
  "Yea": 1172,
  "where</w>": 1173,
  "ear": 1174,
  "gre": 1175,
  "usic]</w>": 1176,
  "tting</w>": 1177,
  "doing</w>": 1178,
  "mat": 1179,
  "our</w>": 1180,
  "no</w>": 1181,
  "boxing</w>": 1182,
  "ul": 1183,
  "guys</w>": 1184,
  "left</w>": 1185,
  "str": 1186,
  "ays</w>": 1187,
  "oc": 1188,
  "whi": 1189,
  "cor": 1190,
  "will</w>": 1191,
  "thre": 1192,
  "over</w>": 1193,
  "first</w>": 1194,
  "ook</w>": 1195,
  "es": 1196,
  "know,</w>": 1197,
  "id</w>": 1198,
  "fin": 1199,
  "work</w>": 1200,
  "round</w>": 1201,
  "ok": 1202,
  "man</w>": 1203,
  "ir</w>": 1204,
  "co": 1205,
  "tim": 1206,
  "ain</w>": 1207,
  "these</w>": 1208,
  "again": 1209,
  "The</w>": 1210,
  "jab": 1211,
  "ice</w>": 1212,
  "ying</w>": 1213,
  "sel": 1214,
  "spe": 1215,
  "z</w>": 1216,
  "d,</w>": 1217,
  "ely</w>": 1218,
  "able</w>": 1219,
  "fu": 1220,
  "off</w>": 1221,
  "mu": 1222,
  "look</w>": 1223,
  "'ll</w>": 1224,
  "side</w>": 1225,
  "it.</w>": 1226,
  "y,</w>": 1227,
  "ked</w>": 1228,
  "make</w>": 1229,
  "tal": 1230,
  "kind</w>": 1231,
  "But</w>": 1232,
  "est": 1233,
  "roun": 1234,
  "who</w>": 1235,
  "ssi": 1236,
  "ting</w>": 1237,
  "weight</w>": 1238,
  "'ve</w>": 1239,
  "even</w>": 1240,
  "say</w>": 1241,
  "ted</w>": 1242,
  "there's</w>": 1243,
  "und": 1244,
  "par": 1245,
  "er.</w>": 1246,
  "ation</w>": 1247,
  "they": 1248,
  "every": 1249,
  "tho": 1250,
  "He's</w>": 1251,
  "tion": 1252,
  "bit</w>": 1253,
  "Wh": 1254,
  "train": 1255,
  "rough": 1256,
  "min": 1257,
  "thing": 1258,
  "end</w>": 1259,
  "mp": 1260,
  "So,</w>": 1261,
  "up": 1262,
  "k.</w>": 1263,
  ":</w>": 1264,
  "ick</w>": 1265,
  "head</w>": 1266,
  "take</w>": 1267,
  "han": 1268,
  "onn": 1269,
  "fa": 1270,
  "ill</w>": 1271,
  "diff": 1272,
  "amp": 1273,
  "mov": 1274,
  "ol": 1275,
  "ic</w>": 1276,
  "ck</w>": 1277,
  "no": 1278,
  "ad</w>": 1279,
  "ong</w>": 1280,
  "[M": 1281,
  "[Music]</w>": 1282,
  "her": 1283,
  "could</w>": 1284,
  "okay</w>": 1285,
  "well</w>": 1286,
  "their</w>": 1287,
  "did</w>": 1288,
  "much</w>": 1289,
  "ound</w>": 1290,
  "du": 1291,
  "can": 1292,
  "br": 1293,
  "che": 1294,
  "three</w>": 1295,
  "though": 1296,
  "et</w>": 1297,
  "most</w>": 1298,
  "say": 1299,
  "stu": 1300,
  "mber</w>": 1301,
  "also</w>": 1302,
  "af": 1303,
  "ep": 1304,
  "ob": 1305,
  "ation": 1306,
  "through": 1307,
  "son</w>": 1308,
  "onna</w>": 1309,
  "I've</w>": 1310,
  "getting</w>": 1311,
  "secon": 1312,
  "gonna</w>": 1313,
  "right": 1314,
  "any": 1315,
  "something</w>": 1316,
  "day</w>": 1317,
  "read": 1318,
  "It's</w>": 1319,
  "ance</w>": 1320,
  "those</w>": 1321,
  "sho": 1322,
  "let's</w>": 1323,
  "us</w>": 1324,
  "than</w>": 1325,
  "trying</w>": 1326,
  "ually</w>": 1327,
  "sure</w>": 1328,
  "ir": 1329,
  "that": 1330,
  "mean</w>": 1331,
  "pu": 1332,
  "differ": 1333,
  "which</w>": 1334,
  "ways</w>": 1335,
  "they're</w>": 1336,
  "big</w>": 1337,
  "put</w>": 1338,
  "cu": 1339,
  "car": 1340,
  "cont": 1341,
  "tion</w>": 1342,
  "A</w>": 1343,
  "were</w>": 1344,
  "happ": 1345,
  "tit": 1346,
  "jab</w>": 1347,
  "wat": 1348,
  "coming</w>": 1349,
  "ct</w>": 1350,
  "hook</w>": 1351,
  "em": 1352,
  "things</w>": 1353,
  "bu": 1354,
  "We": 1355,
  "ace</w>": 1356,
  "oppon": 1357,
  "still</w>": 1358,
  "said</w>": 1359,
  "great</w>": 1360,
  "i'": 1361,
  "x</w>": 1362,
  "feel</w>": 1363,
  "need</w>": 1364,
  "ning</w>": 1365,
  "ving</w>": 1366,
  "again</w>": 1367,
  "punch</w>": 1368,
  "ence</w>": 1369,
  "m.</w>": 1370,
  "20": 1371,
  "age</w>": 1372,
  "through</w>": 1373,
  "champ": 1374,
  "So</w>": 1375,
  "pow": 1376,
  "self</w>": 1377,
  "oun": 1378,
  "cl": 1379,
  "keep</w>": 1380,
  "end": 1381,
  "fo": 1382,
  "i'm</w>": 1383,
  "pr": 1384,
  "ju": 1385,
  "h.</w>": 1386,
  "throw</w>": 1387,
  "being</w>": 1388,
  "cre": 1389,
  "against</w>": 1390,
  "ine</w>": 1391,
  "ready</w>": 1392,
  "is": 1393,
  "only</w>": 1394,
  "can't</w>": 1395,
  "too</w>": 1396,
  "posit": 1397,
  "dn't</w>": 1398,
  "ort</w>": 1399,
  "sh</w>": 1400,
  "guy</w>": 1401,
  "Yeah,</w>": 1402,
  "after</w>": 1403,
  "poin": 1404,
  "coun": 1405,
  "bett": 1406,
  "ort": 1407,
  "try</w>": 1408,
  "start</w>": 1409,
  "ty</w>": 1410,
  "times</w>": 1411,
  "who": 1412,
  "prob": 1413,
  "def": 1414,
  "mon": 1415,
  "didn't</w>": 1416,
  "always</w>": 1417,
  "__": 1418,
  "[&nbsp;": 1419,
  "[&nbsp;__": 1420,
  "[&nbsp;__&nbsp;": 1421,
  "[&nbsp;__&nbsp;]</w>": 1422,
  "ing,</w>": 1423,
  "befor": 1424,
  "An": 1425,
  "any</w>": 1426,
  "punches</w>": 1427,
  "mean": 1428,
  "This</w>": 1429,
  "clo": 1430,
  "ps</w>": 1431,
  "why</w>": 1432,
  "knoc": 1433,
  "ay.</w>": 1434,
  "training</w>": 1435,
  "year": 1436,
  "ss": 1437,
  "That's</w>": 1438,
  "around</w>": 1439,
  "t,</w>": 1440,
  "same</w>": 1441,
  "give</w>": 1442,
  "last</w>": 1443,
  "les</w>": 1444,
  "saying</w>": 1445,
  "on.</w>": 1446,
  "actually</w>": 1447,
  "different</w>": 1448,
  "ey</w>": 1449,
  "ous</w>": 1450,
  "owing</w>": 1451,
  "ow.</w>": 1452,
  "aybe</w>": 1453,
  "ff</w>": 1454,
  "tur": 1455,
  "wan": 1456,
  "best</w>": 1457,
  "oh</w>": 1458,
  "better</w>": 1459,
  "own": 1460,
  "ce": 1461,
  "Le": 1462,
  "gr": 1463,
  "sw": 1464,
  "ni": 1465,
  "bac": 1466,
  "kes</w>": 1467,
  "ge</w>": 1468,
  "ble</w>": 1469,
  "ring</w>": 1470,
  "win": 1471,
  "ite</w>": 1472,
  "ank</w>": 1473,
  "Yeah.</w>": 1474,
  "It</w>": 1475,
  "ated</w>": 1476,
  "world</w>": 1477,
  "ill": 1478,
  "m,</w>": 1479,
  "ho": 1480,
  "ents</w>": 1481,
  "ext</w>": 1482,
  "brea": 1483,
  "hel": 1484,
  "low</w>": 1485,
  "fr": 1486,
  "high": 1487,
  "att": 1488,
  "war": 1489,
  "looking</w>": 1490,
  "before</w>": 1491,
  "nu": 1492,
  "there.</w>": 1493,
  "hard</w>": 1494,
  "2</w>": 1495,
  "let</w>": 1496,
  "hit</w>": 1497,
  "lear": 1498,
  "ves</w>": 1499,
  "ching</w>": 1500,
  "ful</w>": 1501,
  "ould": 1502,
  "should</w>": 1503,
  "ga": 1504,
  "mar": 1505,
  "esn't</w>": 1506,
  "k,</w>": 1507,
  "es.</w>": 1508,
  "5</w>": 1509,
  "never</w>": 1510,
  "every</w>": 1511,
  "sc": 1512,
  "bl": 1513,
  "kne": 1514,
  "tea": 1515,
  "maybe</w>": 1516,
  "Jo": 1517,
  "under": 1518,
  "our": 1519,
  "next</w>": 1520,
  "vide": 1521,
  "does</w>": 1522,
  "\"</w>": 1523,
  "er,</w>": 1524,
  "doesn't</w>": 1525,
  "leg": 1526,
  "might</w>": 1527,
  "comb": 1528,
  "tions</w>": 1529,
  "stra": 1530,
  "ll,</w>": 1531,
  "pa": 1532,
  "power</w>": 1533,
  "move</w>": 1534,
  "heav": 1535,
  "here.</w>": 1536,
  "il": 1537,
  "another</w>": 1538,
  "shi": 1539,
  "lea": 1540,
  "stuff</w>": 1541,
  "that.</w>": 1542,
  "ner</w>": 1543,
  "ange</w>": 1544,
  "tri": 1545,
  "minut": 1546,
  "both</w>": 1547,
  "hands</w>": 1548,
  "o.</w>": 1549,
  "le.</w>": 1550,
  "fight.</w>": 1551,
  "lev": 1552,
  "ably</w>": 1553,
  "sion</w>": 1554,
  "shot</w>": 1555,
  "over": 1556,
  "tech": 1557,
  "C</w>": 1558,
  "ate": 1559,
  "ous": 1560,
  "wa": 1561,
  "comm": 1562,
  "ru": 1563,
  "leg</w>": 1564,
  "coa": 1565,
  "Mar": 1566,
  "cap": 1567,
  "age": 1568,
  "lif": 1569,
  "anc": 1570,
  "down": 1571,
  "use": 1572,
  "sli": 1573,
  "out": 1574,
  "step</w>": 1575,
  "app": 1576,
  "nice</w>": 1577,
  "eng": 1578,
  "ity</w>": 1579,
  "I'll</w>": 1580,
  "off": 1581,
  "ef": 1582,
  "upp": 1583,
  "inter": 1584,
  "om</w>": 1585,
  "happen": 1586,
  "ant": 1587,
  "pres": 1588,
  "ow,</w>": 1589,
  "Li": 1590,
  "red</w>": 1591,
  "long</w>": 1592,
  "love</w>": 1593,
  "many</w>": 1594,
  "done</w>": 1595,
  "comes</w>": 1596,
  "she</w>": 1597,
  "what": 1598,
  "cour": 1599,
  "gy": 1600,
  "used</w>": 1601,
  "ating</w>": 1602,
  "fighting</w>": 1603,
  "top</w>": 1604,
  "E</w>": 1605,
  "lling</w>": 1606,
  "so": 1607,
  "set</w>": 1608,
  "ey": 1609,
  "pus": 1610,
  "au": 1611,
  "ward</w>": 1612,
  "av": 1613,
  "defen": 1614,
  "ough</w>": 1615,
  "ple</w>": 1616,
  "We</w>": 1617,
  "speci": 1618,
  "probably</w>": 1619,
  ")</w>": 1620,
  "bel": 1621,
  "Bo": 1622,
  "away</w>": 1623,
  "foo": 1624,
  "dd": 1625,
  "ten": 1626,
  "tell</w>": 1627,
  "years</w>": 1628,
  "That</w>": 1629,
  "sub": 1630,
  "un</w>": 1631,
  "fighter</w>": 1632,
  "compe": 1633,
  "ann": 1634,
  "ali": 1635,
  "If</w>": 1636,
  "what's</w>": 1637,
  "S</w>": 1638,
  "te</w>": 1639,
  "straight</w>": 1640,
  "per</w>": 1641,
  "ade</w>": 1642,
  "imp": 1643,
  "opponent</w>": 1644,
  "T</w>": 1645,
  "foot</w>": 1646,
  "stance</w>": 1647,
  "Oh,</w>": 1648,
  "rec": 1649,
  "everything</w>": 1650,
  "ll.</w>": 1651,
  "App": 1652,
  "ms</w>": 1653,
  "dri": 1654,
  "win</w>": 1655,
  "real</w>": 1656,
  "lause": 1657,
  "scor": 1658,
  "lause]</w>": 1659,
  "position</w>": 1660,
  "cut</w>": 1661,
  "ically</w>": 1662,
  "talk</w>": 1663,
  "is.</w>": 1664,
  "What</w>": 1665,
  "second</w>": 1666,
  "working</w>": 1667,
  "ind": 1668,
  "10": 1669,
  "wee": 1670,
  "out.</w>": 1671,
  "am</w>": 1672,
  "ick": 1673,
  "show</w>": 1674,
  "her</w>": 1675,
  "bas": 1676,
  "four</w>": 1677,
  "should": 1678,
  "ong": 1679,
  "number</w>": 1680,
  "uc": 1681,
  "hoo": 1682,
  "ry</w>": 1683,
  "Applause]</w>": 1684,
  "[Applause]</w>": 1685,
  "pe</w>": 1686,
  "peri": 1687,
  "har": 1688,
  "10</w>": 1689,
  "you've</w>": 1690,
  "hy": 1691,
  "ener": 1692,
  "ed": 1693,
  "talking</w>": 1694,
  "sk": 1695,
  "now.</w>": 1696,
  "act</w>": 1697,
  "your": 1698,
  "beli": 1699,
  "ight.</w>": 1700,
  "ue</w>": 1701,
  "ows</w>": 1702,
  "fron": 1703,
  "champion": 1704,
  "lead</w>": 1705,
  "Mi": 1706,
  "went</w>": 1707,
  "combin": 1708,
  "quest": 1709,
  "mom": 1710,
  "match</w>": 1711,
  "upper": 1712,
  "na": 1713,
  "contro": 1714,
  "though</w>": 1715,
  "ay,</w>": 1716,
  "niqu": 1717,
  "kick</w>": 1718,
  "ass</w>": 1719,
  "seen</w>": 1720,
  "point</w>": 1721,
  "All</w>": 1722,
  "cuz</w>": 1723,
  "land": 1724,
  "fights</w>": 1725,
  "guard</w>": 1726,
  "der</w>": 1727,
  "ses</w>": 1728,
  "ical</w>": 1729,
  "3</w>": 1730,
  "him.</w>": 1731,
  "ton": 1732,
  "ory</w>": 1733,
  "forward</w>": 1734,
  "up.</w>": 1735,
  "knock": 1736,
  "Well,</w>": 1737,
  "enc": 1738,
  "shots</w>": 1739,
  "angu": 1740,
  "one.</w>": 1741,
  "came</w>": 1742,
  "1</w>": 1743,
  "pri": 1744,
  "rounds</w>": 1745,
  "es,</w>": 1746,
  "tty</w>": 1747,
  "hu": 1748,
  "techniqu": 1749,
  "fl": 1750,
  "front</w>": 1751,
  "Ok": 1752,
  "already</w>": 1753,
  "sty": 1754,
  "ugh": 1755,
  "ssion": 1756,
  "stand</w>": 1757,
  "gets</w>": 1758,
  "ze</w>": 1759,
  "bag": 1760,
  "sol": 1761,
  "list": 1762,
  "lly</w>": 1763,
  "movem": 1764,
  "ling</w>": 1765,
  "comp": 1766,
  "five</w>": 1767,
  "ili": 1768,
  "sed</w>": 1769,
  "made</w>": 1770,
  "seconds</w>": 1771,
  "itsu": 1772,
  "jo": 1773,
  "goes</w>": 1774,
  "ool</w>": 1775,
  "ross</w>": 1776,
  "gg": 1777,
  "pretty</w>": 1778,
  "ent.</w>": 1779,
  "video</w>": 1780,
  "moving</w>": 1781,
  "ome</w>": 1782,
  "St": 1783,
  "using</w>": 1784,
  "wea": 1785,
  "raz": 1786,
  "ding</w>": 1787,
  "ously</w>": 1788,
  "close</w>": 1789,
  "hur": 1790,
  "ati": 1791,
  "loc": 1792,
  "care": 1793,
  "bro": 1794,
  "with": 1795,
  "[m": 1796,
  "ere": 1797,
  "[music]</w>": 1798,
  "watch</w>": 1799,
  "champion</w>": 1800,
  "TH": 1801,
  "right?</w>": 1802,
  "adv": 1803,
  "part</w>": 1804,
  "twe": 1805,
  "ment</w>": 1806,
  "less</w>": 1807,
  "someone</w>": 1808,
  "anguage": 1809,
  "cr": 1810,
  "ear</w>": 1811,
  "a.</w>": 1812,
  "throwing</w>": 1813,
  "ations</w>": 1814,
  "ari": 1815,
  "high</w>": 1816,
  "Kind": 1817,
  "ess</w>": 1818,
  "ned</w>": 1819,
  "Language": 1820,
  "captions</w>": 1821,
  "having</w>": 1822,
  "Kind:</w>": 1823,
  "Language:</w>": 1824,
  "anything</w>": 1825,
  "go.</w>": 1826,
  "op</w>": 1827,
  "gym</w>": 1828,
  "rest": 1829,
  "defin": 1830,
  "thought</w>": 1831,
  "deci": 1832,
  "help</w>": 1833,
  "round.</w>": 1834,
  ".\"</w>": 1835,
  "fighters</w>": 1836,
  "fec": 1837,
  "its</w>": 1838,
  "ven": 1839,
  "betwe": 1840,
  "ven</w>": 1841,
  "arm</w>": 1842,
  "was": 1843,
  "lin": 1844,
  "ici": 1845,
  "pping</w>": 1846,
  "whatever</w>": 1847,
  "tive</w>": 1848,
  "title</w>": 1849,
  "each</w>": 1850,
  "ict": 1851,
  "spar": 1852,
  "sha": 1853,
  "hand": 1854,
  "well.</w>": 1855,
  "ty": 1856,
  "ches</w>": 1857,
  "between</w>": 1858,
  "feel": 1859,
  "UF": 1860,
  "4</w>": 1861,
  "ere's</w>": 1862,
  "we've</w>": 1863,
  "find</w>": 1864,
  "ke,</w>": 1865,
  "ei": 1866,
  "making</w>": 1867,
  "member</w>": 1868,
  "wal": 1869,
  "import": 1870,
  "yourself</w>": 1871,
  "dro": 1872,
  "eve</w>": 1873,
  "turn</w>": 1874,
  "lat": 1875,
  "inside</w>": 1876,
  "est</w>": 1877,
  "ref": 1878,
  "definit": 1879,
  "started</w>": 1880,
  "pi": 1881,
  "Goo": 1882,
  "In</w>": 1883,
  "D</w>": 1884,
  "se.</w>": 1885,
  "mean,</w>": 1886,
  "feet</w>": 1887,
  "once</w>": 1888,
  "men": 1889,
  "while</w>": 1890,
  "land</w>": 1891,
  "time.</w>": 1892,
  "6</w>": 1893,
  "sive</w>": 1894,
  "side": 1895,
  "divi": 1896,
  "whole</w>": 1897,
  "under</w>": 1898,
  "In": 1899,
  "ser": 1900,
  "ki": 1901,
  "taking</w>": 1902,
  "couple</w>": 1903,
  "you.</w>": 1904,
  "coach</w>": 1905,
  "level</w>": 1906,
  "experi": 1907,
  "iu": 1908,
  "stri": 1909,
  "it,</w>": 1910,
  "life</w>": 1911,
  "cer": 1912,
  "O</w>": 1913,
  "new</w>": 1914,
  "son": 1915,
  "obvi": 1916,
  "tial</w>": 1917,
  "hal": 1918,
  "ition": 1919,
  "ste": 1920,
  "exc": 1921,
  "face</w>": 1922,
  "fini": 1923,
  "icul": 1924,
  "man.</w>": 1925,
  "old</w>": 1926,
  "ath": 1927,
  "looks</w>": 1928,
  "counter</w>": 1929,
  "Cha": 1930,
  "ure</w>": 1931,
  "call": 1932,
  "ary</w>": 1933,
  "who's</w>": 1934,
  "solut": 1935,
  "game</w>": 1936,
  "sy": 1937,
  "ob</w>": 1938,
  "itsu</w>": 1939,
  "fre": 1940,
  "wasn't</w>": 1941,
  "range</w>": 1942,
  "gra": 1943,
  "bad</w>": 1944,
  "sing</w>": 1945,
  "gy</w>": 1946,
  "wr": 1947,
  "sen": 1948,
  "supp": 1949,
  "right.</w>": 1950,
  "dou": 1951,
  "nam": 1952,
  "qui": 1953,
  "streng": 1954,
  "we'll</w>": 1955,
  "reas": 1956,
  "time": 1957,
  "19": 1958,
  "8</w>": 1959,
  "ssion</w>": 1960,
  "few</w>": 1961,
  "ch.</w>": 1962,
  "ori": 1963,
  "definitely</w>": 1964,
  "part": 1965,
  "sta": 1966,
  "Let's</w>": 1967,
  "stop</w>": 1968,
  "remember</w>": 1969,
  "person</w>": 1970,
  "sl": 1971,
  "thank</w>": 1972,
  "Ch": 1973,
  "super</w>": 1974,
  "dis": 1975,
  "foll": 1976,
  "They</w>": 1977,
  "stre": 1978,
  "hon": 1979,
  "ds.</w>": 1980,
  "bag</w>": 1981,
  "bring</w>": 1982,
  "ster</w>": 1983,
  "let": 1984,
  "me.</w>": 1985,
  "cat": 1986,
  "in.</w>": 1987,
  "ran": 1988,
  "hand.</w>": 1989,
  "UFC</w>": 1990,
  "beat</w>": 1991,
  "b</w>": 1992,
  "lock</w>": 1993,
  "see": 1994,
  "toge": 1995,
  "De": 1996,
  "believe</w>": 1997,
  "ing]</w>": 1998,
  "my": 1999,
  "beg": 2000,
  "wrest": 2001,
  "ed.</w>": 2002,
  "work": 2003,
  "won</w>": 2004,
  "He": 2005,
  "important</w>": 2006,
  "learn</w>": 2007,
  "six</w>": 2008,
  "iti": 2009,
  "heavy": 2010,
  "line</w>": 2011,
  "fan": 2012,
  "7</w>": 2013,
  "os</w>": 2014,
  "Se": 2015,
  "him": 2016,
  "enough</w>": 2017,
  "dr": 2018,
  "kic": 2019,
  "stand": 2020,
  "der": 2021,
  "perfor": 2022,
  "ded</w>": 2023,
  "sometimes</w>": 2024,
  "Um,</w>": 2025,
  "mp</w>": 2026,
  "Br": 2027,
  "st.</w>": 2028,
  "stay</w>": 2029,
  "ez</w>": 2030,
  "slip</w>": 2031,
  "als</w>": 2032,
  "mer": 2033,
  "foc": 2034,
  "ild": 2035,
  "tiv": 2036,
  "duc": 2037,
  "ts.</w>": 2038,
  "push</w>": 2039,
  "az": 2040,
  "foot": 2041,
  "saw</w>": 2042,
  "ury</w>": 2043,
  "minute</w>": 2044,
  "competit": 2045,
  "Now,</w>": 2046,
  "ions</w>": 2047,
  "There's</w>": 2048,
  "obviously</w>": 2049,
  "far</w>": 2050,
  "ur</w>": 2051,
  "sur": 2052,
  "Just</w>": 2053,
  "Ro": 2054,
  "ship</w>": 2055,
  "almost</w>": 2056,
  "may</w>": 2057,
  "heavy</w>": 2058,
  "ap": 2059,
  "pract": 2060,
  "self": 2061,
  "raw": 2062,
  "cheer": 2063,
  "sort</w>": 2064,
  "minutes</w>": 2065,
  "belt</w>": 2066,
  "Be": 2067,
  "wants</w>": 2068,
  "Ty": 2069,
  "IN": 2070,
  "took</w>": 2071,
  "again.</w>": 2072,
  "makes</w>": 2073,
  "sig": 2074,
  "sy</w>": 2075,
  "y'": 2076,
  "AN": 2077,
  "back.</w>": 2078,
  "elb": 2079,
  "ought</w>": 2080,
  "fac": 2081,
  "youn": 2082,
  "wanted</w>": 2083,
  "year</w>": 2084,
  "absolut": 2085,
  "boom</w>": 2086,
  "this.</w>": 2087,
  "ince</w>": 2088,
  "sm": 2089,
  "nothing</w>": 2090,
  "open</w>": 2091,
  "dy</w>": 2092,
  "le,</w>": 2093,
  "[cheer": 2094,
  "defense</w>": 2095,
  "tain</w>": 2096,
  "sai": 2097,
  "aw": 2098,
  "everybody</w>": 2099,
  "thing.</w>": 2100,
  "course</w>": 2101,
  "pressure</w>": 2102,
  "ved</w>": 2103,
  "usc": 2104,
  "live</w>": 2105,
  "[cheering]</w>": 2106,
  "suc": 2107,
  "keep": 2108,
  "pull</w>": 2109,
  "midd": 2110,
  "beh": 2111,
  "train</w>": 2112,
  "she's</w>": 2113,
  "movement</w>": 2114,
  "money</w>": 2115,
  "Ma": 2116,
  "specially</w>": 2117,
  "interest": 2118,
  "ten</w>": 2119,
  "uppercut</w>": 2120,
  "you'll</w>": 2121,
  "y's</w>": 2122,
  "se,</w>": 2123,
  "contin": 2124,
  "hold</w>": 2125,
  "dam": 2126,
  "style</w>": 2127,
  "speed</w>": 2128,
  "job</w>": 2129,
  "Al": 2130,
  "ands</w>": 2131,
  "control</w>": 2132,
  "ird</w>": 2133,
  "hop": 2134,
  "squ": 2135,
  "cur": 2136,
  "hurt</w>": 2137,
  "Go": 2138,
  "box</w>": 2139,
  "watching</w>": 2140,
  "behind</w>": 2141,
  "ces": 2142,
  "call</w>": 2143,
  "full</w>": 2144,
  "down.</w>": 2145,
  "knee</w>": 2146,
  "aying</w>": 2147,
  "On": 2148,
  "ahead</w>": 2149,
  "Ed": 2150,
  "swe": 2151,
  "musc": 2152,
  "understand</w>": 2153,
  "yes</w>": 2154,
  "201": 2155,
  "Co": 2156,
  "ai": 2157,
  "inst": 2158,
  "eds</w>": 2159,
  "Like</w>": 2160,
  "strength</w>": 2161,
  "fast</w>": 2162,
  "check</w>": 2163,
  "WB": 2164,
  "sing": 2165,
  "shoulder</w>": 2166,
  "iu-": 2167,
  "especially</w>": 2168,
  "scri": 2169,
  "sus</w>": 2170,
  "Now</w>": 2171,
  "place</w>": 2172,
  "body.</w>": 2173,
  "fight,</w>": 2174,
  "craz": 2175,
  "swit": 2176,
  "expe": 2177,
  "ment": 2178,
  "fav": 2179,
  "profe": 2180,
  "legs</w>": 2181,
  "sor": 2182,
  "exp": 2183,
  "MM": 2184,
  "y'all</w>": 2185,
  "landed</w>": 2186,
  "fect</w>": 2187,
  "30</w>": 2188,
  "prom": 2189,
  "Ju": 2190,
  "a,</w>": 2191,
  "proble": 2192,
  "effec": 2193,
  "ited</w>": 2194,
  "glo": 2195,
  "punching</w>": 2196,
  "said,</w>": 2197,
  "Good</w>": 2198,
  "abili": 2199,
  "back": 2200,
  "yeah,</w>": 2201,
  "like,</w>": 2202,
  "There</w>": 2203,
  "somebody</w>": 2204,
  "today</w>": 2205,
  "change</w>": 2206,
  "00</w>": 2207,
  "martial</w>": 2208,
  "You're</w>": 2209,
  "ings</w>": 2210,
  "art</w>": 2211,
  "quite</w>": 2212,
  "stopp": 2213,
  "cle": 2214,
  "night</w>": 2215,
  "fri": 2216,
  "profession": 2217,
  "quick</w>": 2218,
  "easy</w>": 2219,
  "such</w>": 2220,
  "jud": 2221,
  "ew</w>": 2222,
  "ct": 2223,
  "open": 2224,
  "question</w>": 2225,
  "without</w>": 2226,
  "at.</w>": 2227,
  "early</w>": 2228,
  "How</w>": 2229,
  "black</w>": 2230,
  "ony</w>": 2231,
  "ani": 2232,
  "together</w>": 2233,
  "Um</w>": 2234,
  "break</w>": 2235,
  "sch": 2236,
  "ness</w>": 2237,
  "gest</w>": 2238,
  "'d</w>": 2239,
  "dev": 2240,
  "fought</w>": 2241,
  "fort": 2242,
  "%</w>": 2243,
  "thinking</w>": 2244,
  "sparring</w>": 2245,
  "outside</w>": 2246,
  "defe": 2247,
  "heavyweight</w>": 2248,
  "half</w>": 2249,
  "needs</w>": 2250,
  "202": 2251,
  "lls</w>": 2252,
  "outh": 2253,
  "pped</w>": 2254,
  "ead</w>": 2255,
  "right,</w>": 2256,
  "respe": 2257,
  "bal": 2258,
  "situ": 2259,
  "on,</w>": 2260,
  "et": 2261,
  "push": 2262,
  "possi": 2263,
  "Sp": 2264,
  "either</w>": 2265,
  "owed</w>": 2266,
  "ortun": 2267,
  "swer</w>": 2268,
  "ught</w>": 2269,
  "wom": 2270,
  "Sha": 2271,
  "exact": 2272,
  "ending</w>": 2273,
  "Mo": 2274,
  "ide": 2275,
  "iting</w>": 2276,
  "ched</w>": 2277,
  "fam": 2278,
  "opportun": 2279,
  "ive</w>": 2280,
  "reason</w>": 2281,
  "hey</w>": 2282,
  "cross</w>": 2283,
  "ics</w>": 2284,
  "Tyson</w>": 2285,
  "ER": 2286,
  "boo": 2287,
  "gener": 2288,
  "roll</w>": 2289,
  "action</w>": 2290,
  "not": 2291,
  "mind</w>": 2292,
  "Ar": 2293,
  "When</w>": 2294,
  "that,</w>": 2295,
  "happen</w>": 2296,
  "jitsu</w>": 2297,
  "strong</w>": 2298,
  "medi": 2299,
  "ones</w>": 2300,
  "refere": 2301,
  "ends</w>": 2302,
  "play</w>": 2303,
  "uring</w>": 2304,
  "al.</w>": 2305,
  "else</w>": 2306,
  "erci": 2307,
  "inv": 2308,
  "ards</w>": 2309,
  "called</w>": 2310,
  "team</w>": 2311,
  "ion.</w>": 2312,
  "begin": 2313,
  "one,</w>": 2314,
  "cho": 2315,
  "performan": 2316,
  "since</w>": 2317,
  "bus": 2318,
  "double</w>": 2319,
  "We're</w>": 2320,
  "en,</w>": 2321,
  "Da": 2322,
  "20</w>": 2323,
  "putting</w>": 2324,
  "exactly</w>": 2325,
  "story</w>": 2326,
  "mm": 2327,
  "ly.</w>": 2328,
  "light</w>": 2329,
  "myself</w>": 2330,
  "cond": 2331,
  "attac": 2332,
  "run": 2333,
  "re.</w>": 2334,
  "is,</w>": 2335,
  "cool</w>": 2336,
  "know.</w>": 2337,
  "12</w>": 2338,
  "main</w>": 2339,
  "elt</w>": 2340,
  "Champ": 2341,
  "gri": 2342,
  "ly": 2343,
  "ner": 2344,
  "single</w>": 2345,
  "G</w>": 2346,
  "simp": 2347,
  "boxer</w>": 2348,
  "die</w>": 2349,
  "atur": 2350,
  "tre": 2351,
  "Box": 2352,
  "opponent": 2353,
  "told</w>": 2354,
  "corner</w>": 2355,
  "tou": 2356,
  "cess</w>": 2357,
  "himself</w>": 2358,
  "versus</w>": 2359,
  "No,</w>": 2360,
  "consi": 2361,
  "tiful</w>": 2362,
  "Uh</w>": 2363,
  "tough</w>": 2364,
  "rot": 2365,
  "isn't</w>": 2366,
  "ons</w>": 2367,
  "tain": 2368,
  "week</w>": 2369,
  "whe": 2370,
  "name</w>": 2371,
  "prote": 2372,
  "ain't</w>": 2373,
  "ground</w>": 2374,
  "Okay.</w>": 2375,
  "ph": 2376,
  "light": 2377,
  "final</w>": 2378,
  "til</w>": 2379,
  "too": 2380,
  "ig": 2381,
  "ba": 2382,
  "ly,</w>": 2383,
  "ask</w>": 2384,
  "impro": 2385,
  "you,</w>": 2386,
  "arr": 2387,
  "ec": 2388,
  "chang": 2389,
  "there,</w>": 2390,
  "clu": 2391,
  "en.</w>": 2392,
  "weight": 2393,
  "submi": 2394,
  "cli": 2395,
  "fully</w>": 2396,
  "giving</w>": 2397,
  "MMA</w>": 2398,
  "exerci": 2399,
  "knows</w>": 2400,
  "until</w>": 2401,
  "tow": 2402,
  "ve.</w>": 2403,
  "professional</w>": 2404,
  "pas": 2405,
  "phy": 2406,
  "combination</w>": 2407,
  "cha": 2408,
  "incre": 2409,
  "long": 2410,
  "itting</w>": 2411,
  "become</w>": 2412,
  "run</w>": 2413,
  "cent": 2414,
  "omin": 2415,
  "technique</w>": 2416,
  "standing</w>": 2417,
  "distance</w>": 2418,
  "Di": 2419,
  "takes</w>": 2420,
  "Gar": 2421,
  "ab</w>": 2422,
  "side.</w>": 2423,
  "experience</w>": 2424,
  "wel": 2425,
  "crazy</w>": 2426,
  "May": 2427,
  "short</w>": 2428,
  "elo": 2429,
  "fid": 2430,
  "ently</w>": 2431,
  "basically</w>": 2432,
  "starting</w>": 2433,
  "Fight": 2434,
  "F</w>": 2435,
  "hear</w>": 2436,
  "rear</w>": 2437,
  "cess": 2438,
  "looked</w>": 2439,
  "says</w>": 2440,
  "ors</w>": 2441,
  "beau": 2442,
  "home</w>": 2443,
  "p.</w>": 2444,
  "often</w>": 2445,
  "ker</w>": 2446,
  "ower</w>": 2447,
  "eight</w>": 2448,
  "are": 2449,
  "Do</w>": 2450,
  "angle</w>": 2451,
  "confid": 2452,
  "th.</w>": 2453,
  "id": 2454,
  "Mu": 2455,
  "listen</w>": 2456,
  "ach": 2457,
  "means</w>": 2458,
  "recor": 2459,
  "11": 2460,
  "ach</w>": 2461,
  "uni": 2462,
  "Wor": 2463,
  "young</w>": 2464,
  "energy</w>": 2465,
  "char": 2466,
  "big": 2467,
  "skill": 2468,
  "ny</w>": 2469,
  "seeing</w>": 2470,
  "here,</w>": 2471,
  "struc": 2472,
  "again,</w>": 2473,
  "I'd</w>": 2474,
  "felt</w>": 2475,
  "gott": 2476,
  "do.</w>": 2477,
  "Com": 2478,
  "days</w>": 2479,
  "person": 2480,
  "during</w>": 2481,
  "way.</w>": 2482,
  "Su": 2483,
  "fun": 2484,
  "ther.</w>": 2485,
  "form": 2486,
  "st,</w>": 2487,
  "chall": 2488,
  "e?</w>": 2489,
  "guar": 2490,
  "amate": 2491,
  "fun</w>": 2492,
  "Ke": 2493,
  "z.</w>": 2494,
  "ability</w>": 2495,
  "dang": 2496,
  "Joh": 2497,
  "footwork</w>": 2498,
  "ssed</w>": 2499,
  "spon": 2500,
  "Can": 2501,
  "seem": 2502,
  "whether</w>": 2503,
  "guess</w>": 2504,
  "main": 2505,
  "catch</w>": 2506,
  "sci": 2507,
  "counter": 2508,
  "Re": 2509,
  "des</w>": 2510,
  "nor": 2511,
  "reali": 2512,
  "good.</w>": 2513,
  "shot.</w>": 2514,
  "tra": 2515,
  "Sh": 2516,
  "moment</w>": 2517,
  "cal": 2518,
  "career</w>": 2519,
  "me,</w>": 2520,
  "Fury</w>": 2521,
  "ball</w>": 2522,
  "lost</w>": 2523,
  "phys": 2524,
  "everyone</w>": 2525,
  "condition": 2526,
  "Pac": 2527,
  "matter</w>": 2528,
  "tran": 2529,
  "dies</w>": 2530,
  "J</w>": 2531,
  "Con": 2532,
  "THE</w>": 2533,
  "jiu-": 2534,
  "absolutely</w>": 2535,
  "favor": 2536,
  "later</w>": 2537,
  "ates</w>": 2538,
  "inten": 2539,
  "il</w>": 2540,
  "lic": 2541,
  "finish</w>": 2542,
  "third</w>": 2543,
  "interesting</w>": 2544,
  "type</w>": 2545,
  "-</w>": 2546,
  "athlet": 2547,
  "perfect</w>": 2548,
  "day.</w>": 2549,
  "certain</w>": 2550,
  "advant": 2551,
  "ben": 2552,
  "ge.</w>": 2553,
  "sting</w>": 2554,
  "sport</w>": 2555,
  "rel": 2556,
  "om.</w>": 2557,
  "sle": 2558,
  "ount</w>": 2559,
  "Gre": 2560,
  "drop</w>": 2561,
  "orr": 2562,
  "lef": 2563,
  "orts</w>": 2564,
  "ges</w>": 2565,
  "attack</w>": 2566,
  "throws</w>": 2567,
  "clas": 2568,
  "feeling</w>": 2569,
  "ended</w>": 2570,
  "figu": 2571,
  "would": 2572,
  "ational</w>": 2573,
  "pick</w>": 2574,
  "#</w>": 2575,
  "referee</w>": 2576,
  "jab.</w>": 2577,
  "ation.</w>": 2578,
  "liter": 2579,
  "beautiful</w>": 2580,
  "men</w>": 2581,
  "gger</w>": 2582,
  "200": 2583,
  "Car": 2584,
  "enti": 2585,
  "shar": 2586,
  "haven": 2587,
  "deal</w>": 2588,
  "ton</w>": 2589,
  "Not</w>": 2590,
  "hook.</w>": 2591,
  "cir": 2592,
  "won": 2593,
  "knew</w>": 2594,
  "difficul": 2595,
  "rela": 2596,
  "vict": 2597,
  "tu": 2598,
  "9</w>": 2599,
  "walk</w>": 2600,
  "ON": 2601,
  "Un": 2602,
  "keeping</w>": 2603,
  "lar</w>": 2604,
  "dep": 2605,
  "here's</w>": 2606,
  "easi": 2607,
  "lex": 2608,
  "One</w>": 2609,
  "Mike</w>": 2610,
  "ve": 2611,
  "ver</w>": 2612,
  "ky</w>": 2613,
  "score": 2614,
  "develo": 2615,
  "tru": 2616,
  "Fr": 2617,
  "out,</w>": 2618,
  "focus</w>": 2619,
  "quia": 2620,
  "knockout</w>": 2621,
  "haven't</w>": 2622,
  "site</w>": 2623,
  "aggre": 2624,
  "winning</w>": 2625,
  "up,</w>": 2626,
  "ild</w>": 2627,
  "points</w>": 2628,
  "across</w>": 2629,
  "Craw": 2630,
  "bro</w>": 2631,
  "division</w>": 2632,
  "stanc": 2633,
  "step": 2634,
  "gloves</w>": 2635,
  "an.</w>": 2636,
  "grapp": 2637,
  "finish": 2638,
  "wouldn't</w>": 2639,
  "now,</w>": 2640,
  "dre": 2641,
  "class</w>": 2642,
  "plac": 2643,
  "pur": 2644,
  "level": 2645,
  "he'll</w>": 2646,
  "caught</w>": 2647,
  "lled</w>": 2648,
  "comfort": 2649,
  "Boxing</w>": 2650,
  "gam": 2651,
  "Pacquia": 2652,
  "ken</w>": 2653,
  "gent": 2654,
  "Don't</w>": 2655,
  "biggest</w>": 2656,
  "key</w>": 2657,
  "As</w>": 2658,
  "elbow</w>": 2659,
  "hips</w>": 2660,
  "hitting</w>": 2661,
  "laugh": 2662,
  "Maywea": 2663,
  "agre": 2664,
  "Tu": 2665,
  "four": 2666,
  "happens</w>": 2667,
  "slow</w>": 2668,
  "ang</w>": 2669,
  "ing?</w>": 2670,
  "least</w>": 2671,
  "wrong</w>": 2672,
  "seri": 2673,
  "bur": 2674,
  "teach</w>": 2675,
  "promo": 2676,
  "block</w>": 2677,
  "lli": 2678,
  "Eddie</w>": 2679,
  "temp": 2680,
  "Ti": 2681,
  "med": 2682,
  "Crawfor": 2683,
  "Is</w>": 2684,
  "reci": 2685,
  "could": 2686,
  "arts</w>": 2687,
  "towards</w>": 2688,
  "ler</w>": 2689,
  "switch</w>": 2690,
  "ese</w>": 2691,
  "examp": 2692,
  "outhpa": 2693,
  "ssing</w>": 2694,
  "one's</w>": 2695,
  "sion.</w>": 2696,
  "boxing.</w>": 2697,
  "15</w>": 2698,
  "rest</w>": 2699,
  "lose</w>": 2700,
  "kicks</w>": 2701,
  "fact</w>": 2702,
  "M</w>": 2703,
  "bloo": 2704,
  "dude</w>": 2705,
  "bra": 2706,
  "B</w>": 2707,
  "arms</w>": 2708,
  "wait</w>": 2709,
  "literally</w>": 2710,
  "free</w>": 2711,
  "hold": 2712,
  "Ta": 2713,
  "Eu": 2714,
  "ns</w>": 2715,
  "Tw": 2716,
  "domin": 2717,
  "La": 2718,
  "vely</w>": 2719,
  "tar": 2720,
  "ah</w>": 2721,
  "kick": 2722,
  "respect</w>": 2723,
  "Tha": 2724,
  "seven</w>": 2725,
  "enjo": 2726,
  "wrestling</w>": 2727,
  "opportunity</w>": 2728,
  "anny</w>": 2729,
  "inging</w>": 2730,
  "s?</w>": 2731,
  "ers.</w>": 2732,
  "OU": 2733,
  "chann": 2734,
  "ds,</w>": 2735,
  "ssive</w>": 2736,
  "happened</w>": 2737,
  "amaz": 2738,
  "honest": 2739,
  "They": 2740,
  "all.</w>": 2741,
  "Okay,</w>": 2742,
  "won't</w>": 2743,
  "telling</w>": 2744,
  "Davi": 2745,
  "knocked</w>": 2746,
  "res</w>": 2747,
  "tonight</w>": 2748,
  "boxers</w>": 2749,
  "led</w>": 2750,
  "help": 2751,
  "lete</w>": 2752,
  "unch</w>": 2753,
  "Mat": 2754,
  "pes</w>": 2755,
  "couldn't</w>": 2756,
  "problem</w>": 2757,
  "two,</w>": 2758,
  "Look</w>": 2759,
  "test</w>": 2760,
  "corn": 2761,
  "His</w>": 2762,
  "lit": 2763,
  "gave</w>": 2764,
  "care</w>": 2765,
  "stor": 2766,
  "ican</w>": 2767,
  "ounc": 2768,
  "ally,</w>": 2769,
  "advantage</w>": 2770,
  "ago</w>": 2771,
  "fe</w>": 2772,
  "techniques</w>": 2773,
  "bor": 2774,
  "ths</w>": 2775,
  "vari": 2776,
  "ew": 2777,
  "practice</w>": 2778,
  "ie</w>": 2779,
  "tro": 2780,
  "Bi": 2781,
  "spea": 2782,
  "Loo": 2783,
  "chin</w>": 2784,
  "press</w>": 2785,
  "busin": 2786,
  "create</w>": 2787,
  "quick": 2788,
  "loy": 2789,
  "bigger</w>": 2790,
  "head": 2791,
  "sted</w>": 2792,
  "No</w>": 2793,
  "earli": 2794,
  "Y</w>": 2795,
  "decision</w>": 2796,
  "L</w>": 2797,
  "bloc": 2798,
  "soon</w>": 2799,
  "strong": 2800,
  "ed,</w>": 2801,
  ").</w>": 2802,
  "sit</w>": 2803,
  "punches.</w>": 2804,
  "usually</w>": 2805,
  "zed</w>": 2806,
  "ale</w>": 2807,
  "them.</w>": 2808,
  "an,</w>": 2809,
  "videos</w>": 2810,
  "talked</w>": 2811,
  "ats</w>": 2812,
  "event</w>": 2813,
  "performance</w>": 2814,
  "Amer": 2815,
  "12": 2816,
  "tion.</w>": 2817,
  "chance</w>": 2818,
  "Garci": 2819,
  "techn": 2820,
  "ent,</w>": 2821,
  "wins</w>": 2822,
  "mul": 2823,
  "fain": 2824,
  "workout</w>": 2825,
  "ch,</w>": 2826,
  "work.</w>": 2827,
  "sts</w>": 2828,
  "forwar": 2829,
  "fic": 2830,
  "time,</w>": 2831,
  "i've</w>": 2832,
  "Mor": 2833,
  "oppo": 2834,
  "it?</w>": 2835,
  "difficult</w>": 2836,
  "balance</w>": 2837,
  "tom": 2838,
  "fans</w>": 2839,
  "inc": 2840,
  "round,</w>": 2841,
  "mill": 2842,
  "aring</w>": 2843,
  "mean?</w>": 2844,
  "idea</w>": 2845,
  "feels</w>": 2846,
  "en't</w>": 2847,
  "offen": 2848,
  "lease</w>": 2849,
  "ome": 2850,
  "gentle": 2851,
  "outs</w>": 2852,
  "amateur</w>": 2853,
  "power": 2854,
  "AND</w>": 2855,
  "rope": 2856,
  "ately</w>": 2857,
  "heard</w>": 2858,
  "hou": 2859,
  "effective</w>": 2860,
  "build": 2861,
  "instead</w>": 2862,
  "add</w>": 2863,
  "continu": 2864,
  "head.</w>": 2865,
  "gotta</w>": 2866,
  "situation</w>": 2867,
  "ter]</w>": 2868,
  "build</w>": 2869,
  "explo": 2870,
  "sn": 2871,
  "huge</w>": 2872,
  "flo": 2873,
  "danger": 2874,
  "top": 2875,
  "incredi": 2876,
  "ss.</w>": 2877,
  "opponent's</w>": 2878,
  "in,</w>": 2879,
  "shu": 2880,
  "Cor": 2881,
  "lb": 2882,
  "For": 2883,
  "YouTu": 2884,
  "piv": 2885,
  "him,</w>": 2886,
  "r.</w>": 2887,
  "ring.</w>": 2888,
  "On</w>": 2889,
  "ank": 2890,
  "50</w>": 2891,
  "experienc": 2892,
  "coll": 2893,
  "opponents</w>": 2894,
  "My</w>": 2895,
  "comfortable</w>": 2896,
  ",0": 2897,
  "0%</w>": 2898,
  "Nice</w>": 2899,
  "punch.</w>": 2900,
  "ournam": 2901,
  "ster": 2902,
  "yet</w>": 2903,
  "defeated</w>": 2904,
  "dow</w>": 2905,
  "Mc": 2906,
  "xed</w>": 2907,
  "uppercu": 2908,
  "bri": 2909,
  "yo</w>": 2910,
  "Cru": 2911,
  "tast": 2912,
  "bar": 2913,
  "ely.</w>": 2914,
  "mista": 2915,
  "ls</w>": 2916,
  "clin": 2917,
  "white</w>": 2918,
  "ans</w>": 2919,
  "record</w>": 2920,
  "K</w>": 2921,
  "Oly": 2922,
  "Gr": 2923,
  "how": 2924,
  "hope</w>": 2925,
  "outh</w>": 2926,
  "lower</w>": 2927,
  "ts,</w>": 2928,
  "terms</w>": 2929,
  "lead": 2930,
  "muscle</w>": 2931,
  "Olymp": 2932,
  "Ali": 2933,
  "cep": 2934,
  "conne": 2935,
  "ual</w>": 2936,
  "reach</w>": 2937,
  "mas": 2938,
  "Par": 2939,
  "jump</w>": 2940,
  "Then</w>": 2941,
  "inclu": 2942,
  "scre": 2943,
  "GH": 2944,
  "conditioning</w>": 2945,
  "disp": 2946,
  "middle</w>": 2947,
  "favorite</w>": 2948,
  "suppo": 2949,
  "et.</w>": 2950,
  "ative</w>": 2951,
  "other": 2952,
  "body's</w>": 2953,
  "follow</w>": 2954,
  "seems</w>": 2955,
  "pic": 2956,
  "works</w>": 2957,
  "hour": 2958,
  "Je": 2959,
  "ak": 2960,
  "Ge": 2961,
  "known</w>": 2962,
  "appreci": 2963,
  "Ri": 2964,
  "happy</w>": 2965,
  "past</w>": 2966,
  "subscri": 2967,
  "tournam": 2968,
  "champion.</w>": 2969,
  "gir": 2970,
  "southpa": 2971,
  "14": 2972,
  "lity</w>": 2973,
  "bott": 2974,
  "ounds</w>": 2975,
  "lar": 2976,
  "ily</w>": 2977,
  "ice.</w>": 2978,
  "direc": 2979,
  "ext": 2980,
  "ko</w>": 2981,
  "this,</w>": 2982,
  "well,</w>": 2983,
  "respon": 2984,
  "norm": 2985,
  "force</w>": 2986,
  "jiu-jitsu</w>": 2987,
  "resu": 2988,
  "sti": 2989,
  "Au": 2990,
  "knees</w>": 2991,
  "heart</w>": 2992,
  "jump": 2993,
  "gone</w>": 2994,
  "val": 2995,
  "ise</w>": 2996,
  "small</w>": 2997,
  "u</w>": 2998,
  "running</w>": 2999,
  "En": 3000,
  "two.</w>": 3001,
  "Right</w>": 3002,
  "former</w>": 3003,
  "deep</w>": 3004,
  "hip</w>": 3005,
  "boy</w>": 3006,
  "knock</w>": 3007,
  "leave</w>": 3008,
  "ley</w>": 3009,
  "format": 3010,
  "even": 3011,
  "tonight.</w>": 3012,
  "difference</w>": 3013,
  "tomorr": 3014,
  "natur": 3015,
  "amount</w>": 3016,
  "eye</w>": 3017,
  "Bar": 3018,
  "submission</w>": 3019,
  "form</w>": 3020,
  "answer</w>": 3021,
  "winner</w>": 3022,
  "gl": 3023,
  "gar": 3024,
  "blue</w>": 3025,
  "ber</w>": 3026,
  "ld.</w>": 3027,
  "ition</w>": 3028,
  "rounds.</w>": 3029,
  "ages</w>": 3030,
  "tried</w>": 3031,
  "soci": 3032,
  "plan</w>": 3033,
  "bab": 3034,
  "instruc": 3035,
  "believ": 3036,
  "man,</w>": 3037,
  "has": 3038,
  "issu": 3039,
  "Thank</w>": 3040,
  "landing</w>": 3041,
  "below</w>": 3042,
  "mention": 3043,
  "Mayweather</w>": 3044,
  "cul": 3045,
  "pass</w>": 3046,
  "l.</w>": 3047,
  "crow": 3048,
  "Joe</w>": 3049,
  "Uh,</w>": 3050,
  "Or": 3051,
  "offici": 3052,
  "shots.</w>": 3053,
  "Ste": 3054,
  "strate": 3055,
  "kid</w>": 3056,
  "judges</w>": 3057,
  "thony</w>": 3058,
  "Ab": 3059,
  "possible</w>": 3060,
  "fire</w>": 3061,
  "wards</w>": 3062,
  "elo</w>": 3063,
  "ream</w>": 3064,
  "pushing</w>": 3065,
  "stair": 3066,
  "questions</w>": 3067,
  "anks</w>": 3068,
  "hooks</w>": 3069,
  "combinations</w>": 3070,
  "butt": 3071,
  "center</w>": 3072,
  "Ry": 3073,
  "pt</w>": 3074,
  "sense</w>": 3075,
  "Gu": 3076,
  "med</w>": 3077,
  "simple</w>": 3078,
  "too.</w>": 3079,
  "surpri": 3080,
  "more.</w>": 3081,
  "e-": 3082,
  "ket</w>": 3083,
  "read</w>": 3084,
  "book</w>": 3085,
  "o's</w>": 3086,
  "space</w>": 3087,
  "Champion": 3088,
  "15": 3089,
  "They're</w>": 3090,
  "specif": 3091,
  "Oh</w>": 3092,
  "view": 3093,
  "found</w>": 3094,
  "ement</w>": 3095,
  "Pe": 3096,
  "rather</w>": 3097,
  "showing</w>": 3098,
  "or.</w>": 3099,
  "eli": 3100,
  "amazing</w>": 3101,
  "particul": 3102,
  "anybody</w>": 3103,
  "R</w>": 3104,
  ",000</w>": 3105,
  "school</w>": 3106,
  "trained</w>": 3107,
  "channel</w>": 3108,
  "P</w>": 3109,
  "room</w>": 3110,
  "IGH": 3111,
  "tired</w>": 3112,
  "For</w>": 3113,
  "ber": 3114,
  "threw</w>": 3115,
  "World</w>": 3116,
  "trou": 3117,
  "old": 3118,
  "chan": 3119,
  "grip</w>": 3120,
  "dic": 3121,
  "athletes</w>": 3122,
  "eyes</w>": 3123,
  "history</w>": 3124,
  "Dav": 3125,
  "case</w>": 3126,
  "harder</w>": 3127,
  "turning</w>": 3128,
  "card</w>": 3129,
  "link</w>": 3130,
  "YouTube</w>": 3131,
  "ack": 3132,
  "impre": 3133,
  "Lu": 3134,
  "continue</w>": 3135,
  "learning</w>": 3136,
  "kids</w>": 3137,
  "Ja": 3138,
  "son.</w>": 3139,
  "stud": 3140,
  "join": 3141,
  "cted</w>": 3142,
  "hyth": 3143,
  "supposed</w>": 3144,
  "women</w>": 3145,
  "simi": 3146,
  "eath</w>": 3147,
  "fer": 3148,
  "tight</w>": 3149,
  "view</w>": 3150,
  "pay</w>": 3151,
  "stepping</w>": 3152,
  "soli": 3153,
  "gain": 3154,
  "improve</w>": 3155,
  "tot": 3156,
  "Come</w>": 3157,
  "sure.</w>": 3158,
  "ris</w>": 3159,
  "off.</w>": 3160,
  "Floy": 3161,
  "self.</w>": 3162,
  "Rob": 3163,
  "Crawford</w>": 3164,
  "championship</w>": 3165,
  "zing</w>": 3166,
  "heal": 3167,
  "Phi": 3168,
  "appreciate</w>": 3169,
  "ight,</w>": 3170,
  "play": 3171,
  "inj": 3172,
  "guys.</w>": 3173,
  "take": 3174,
  "amp</w>": 3175,
  "io</w>": 3176,
  "appro": 3177,
  "starts</w>": 3178,
  "gas</w>": 3179,
  "ars</w>": 3180,
  "poten": 3181,
  "[laugh": 3182,
  "antly</w>": 3183,
  "grab</w>": 3184,
  "stret": 3185,
  "selves</w>": 3186,
  "Ben": 3187,
  "longer</w>": 3188,
  "tly</w>": 3189,
  "holding</w>": 3190,
  "Muay</w>": 3191,
  "Ca": 3192,
  "tra</w>": 3193,
  "[laughter]</w>": 3194,
  "smar": 3195,
  "com</w>": 3196,
  "Wild": 3197,
  "pro</w>": 3198,
  "way,</w>": 3199,
  "inju": 3200,
  "fighter.</w>": 3201,
  "touch</w>": 3202,
  "ction</w>": 3203,
  "they've</w>": 3204,
  "eat</w>": 3205,
  "ord": 3206,
  "turned</w>": 3207,
  "clear": 3208,
  "excited</w>": 3209,
  "true</w>": 3210,
  "Ho": 3211,
  "worked</w>": 3212,
  "Ad": 3213,
  "ink</w>": 3214,
  "they'll</w>": 3215,
  "informat": 3216,
  "Do": 3217,
  "forc": 3218,
  "load": 3219,
  "sitting</w>": 3220,
  "hours</w>": 3221,
  "steps</w>": 3222,
  "sity</w>": 3223,
  "Let</w>": 3224,
  "arly</w>": 3225,
  "),</w>": 3226,
  "Ex": 3227,
  "weigh": 3228,
  "Du": 3229,
  "say,</w>": 3230,
  "thodo": 3231,
  "house</w>": 3232,
  "bout</w>": 3233,
  "defend</w>": 3234,
  "quali": 3235,
  "playing</w>": 3236,
  "stat": 3237,
  "but": 3238,
  "upper</w>": 3239,
  "benef": 3240,
  "dangerous</w>": 3241,
  "lim": 3242,
  "figure</w>": 3243,
  "spo": 3244,
  "LE": 3245,
  "count</w>": 3246,
  "position": 3247,
  "Jitsu</w>": 3248,
  "hasn't</w>": 3249,
  "New</w>": 3250,
  "complet": 3251,
  "Get</w>": 3252,
  "need": 3253,
  "matches</w>": 3254,
  "day,</w>": 3255,
  "defensive</w>": 3256,
  "based</w>": 3257,
  "Pau": 3258,
  "position.</w>": 3259,
  "expect</w>": 3260,
  "She</w>": 3261,
  "moment": 3262,
  "opening</w>": 3263,
  "earlier</w>": 3264,
  "lands</w>": 3265,
  "ele": 3266,
  "plan": 3267,
  "far": 3268,
  "skills</w>": 3269,
  "Thai</w>": 3270,
  "What's</w>": 3271,
  "stopped</w>": 3272,
  "though.</w>": 3273,
  "family</w>": 3274,
  "gives</w>": 3275,
  "ming</w>": 3276,
  "business</w>": 3277,
  "Pacquiao</w>": 3278,
  "tin": 3279,
  "Garcia</w>": 3280,
  "Answer</w>": 3281,
  "##</w>": 3282,
  "attemp": 3283,
  "given</w>": 3284,
  "ery</w>": 3285,
  "dge</w>": 3286,
  "six": 3287,
  "self-": 3288,
  "months</w>": 3289,
  "ger</w>": 3290,
  "No": 3291,
  "present": 3292,
  "resul": 3293,
  "(score": 3294,
  "(score:</w>": 3295,
  "jab,</w>": 3296,
  "anyone</w>": 3297,
  "N</w>": 3298,
  "lan": 3299,
  "middle": 3300,
  "Anthony</w>": 3301,
  "stuff": 3302,
  "overhand</w>": 3303,
  "asked</w>": 3304,
  "Jam": 3305,
  "load</w>": 3306,
  "drill</w>": 3307,
  "ble.</w>": 3308,
  "necess": 3309,
  "weap": 3310,
  "bottom</w>": 3311,
  "Char": 3312,
  "vers": 3313,
  "ins</w>": 3314,
  "ris": 3315,
  "cla": 3316,
  "Keep</w>": 3317,
  "IS</w>": 3318,
  "Qu": 3319,
  "lik": 3320,
  "const": 3321,
  "score</w>": 3322,
  "les.</w>": 3323,
  "de.</w>": 3324,
  "Ever": 3325,
  "IB": 3326,
  "uses</w>": 3327,
  "Rea": 3328,
  "Here</w>": 3329,
  "prepar": 3330,
  "day": 3331,
  "stru": 3332,
  "learned</w>": 3333,
  "ING</w>": 3334,
  "challeng": 3335,
  "Tony</w>": 3336,
  "powerful</w>": 3337,
  "th,</w>": 3338,
  "Canelo</w>": 3339,
  "sche": 3340,
  "competition</w>": 3341,
  "word</w>": 3342,
  "OW": 3343,
  "event": 3344,
  "er's</w>": 3345,
  "mbers</w>": 3346,
  "shoulders</w>": 3347,
  "ered</w>": 3348,
  "avo": 3349,
  "along</w>": 3350,
  "tact": 3351,
  "y?</w>": 3352,
  "support</w>": 3353,
  "completely</w>": 3354,
  "Floyd</w>": 3355,
  "ssions</w>": 3356,
  "David</w>": 3357,
  "physical</w>": 3358,
  "activ": 3359,
  "must</w>": 3360,
  "itness</w>": 3361,
  "times.</w>": 3362,
  "lu": 3363,
  "tips</w>": 3364,
  "moves</w>": 3365,
  "invol": 3366,
  "waiting</w>": 3367,
  "ters</w>": 3368,
  "bing</w>": 3369,
  "Manny</w>": 3370,
  "do,</w>": 3371,
  "multi": 3372,
  "aller</w>": 3373,
  "ering</w>": 3374,
  "over.</w>": 3375,
  "walking</w>": 3376,
  "ful": 3377,
  "left.</w>": 3378,
  "clean</w>": 3379,
  "ers,</w>": 3380,
  "ever,</w>": 3381,
  "ve,</w>": 3382,
  "thrown</w>": 3383,
  "batt": 3384,
  "ser</w>": 3385,
  "opin": 3386,
  "i'll</w>": 3387,
  "imag": 3388,
  "week": 3389,
  "weights</w>": 3390,
  "world": 3391,
  "similar</w>": 3392,
  "taken</w>": 3393,
  "trad": 3394,
  "Chris</w>": 3395,
  "immedi": 3396,
  "cro": 3397,
  "it'll</w>": 3398,
  "John": 3399,
  "mid": 3400,
  "syste": 3401,
  "Hey,</w>": 3402,
  "wri": 3403,
  "Don": 3404,
  "example</w>": 3405,
  "bly</w>": 3406,
  "Davis</w>": 3407,
  "fantast": 3408,
  "water</w>": 3409,
  "rolling</w>": 3410,
  "al,</w>": 3411,
  "miss</w>": 3412,
  "trainer</w>": 3413,
  "Rus": 3414,
  "bang</w>": 3415,
  "a's</w>": 3416,
  "hand,</w>": 3417,
  "bell</w>": 3418,
  "keeps</w>": 3419,
  "boxing,</w>": 3420,
  "San": 3421,
  "abo": 3422,
  "order</w>": 3423,
  "core</w>": 3424,
  "active</w>": 3425,
  "bunch</w>": 3426,
  "ams</w>": 3427,
  "pace</w>": 3428,
  "spir": 3429,
  "bit.</w>": 3430,
  "information</w>": 3431,
  "entr": 3432,
  "them": 3433,
  "One": 3434,
  "ally.</w>": 3435,
  "throughout</w>": 3436,
  "lift</w>": 3437,
  "Fighters</w>": 3438,
  "fut": 3439,
  "WBC</w>": 3440,
  "hom": 3441,
  "blood</w>": 3442,
  "im</w>": 3443,
  "Pro": 3444,
  "welcome</w>": 3445,
  "typ": 3446,
  "non": 3447,
  "God</w>": 3448,
  "'S</w>": 3449,
  "gram</w>": 3450,
  "Big</w>": 3451,
  "solid</w>": 3452,
  "she": 3453,
  "rect</w>": 3454,
  "us.</w>": 3455,
  "success</w>": 3456,
  "fied</w>": 3457,
  "atest</w>": 3458,
  "Ni": 3459,
  "emp": 3460,
  ".com</w>": 3461,
  "bed</w>": 3462,
  "notice</w>": 3463,
  "course,</w>": 3464,
  "announc": 3465,
  "100</w>": 3466,
  "gentlemen": 3467,
  "agree</w>": 3468,
  "descri": 3469,
  "brain</w>": 3470,
  "weeks</w>": 3471,
  "illi": 3472,
  "mentioned</w>": 3473,
  "Val": 3474,
  "Paul</w>": 3475,
  "technical</w>": 3476,
  "skill</w>": 3477,
  "ro</w>": 3478,
  "late</w>": 3479,
  "building</w>": 3480,
  "scar": 3481,
  "agg": 3482,
  "camp</w>": 3483,
  "Gab": 3484,
  "chest</w>": 3485,
  "13": 3486,
  "night.</w>": 3487,
  "ening</w>": 3488,
  "trem": 3489,
  "thing,</w>": 3490,
  "ana</w>": 3491,
  "sell</w>": 3492,
  "deli": 3493,
  "Ru": 3494,
  "One,</w>": 3495,
  "Tr": 3496,
  "'</w>": 3497,
  "ck": 3498,
  "AD": 3499,
  "fights.</w>": 3500,
  "tially</w>": 3501,
  "beginning</w>": 3502,
  "re,</w>": 3503,
  "Fi": 3504,
  "scen": 3505,
  "Shak": 3506,
  "tomorrow</w>": 3507,
  "thodox</w>": 3508,
  "ropes</w>": 3509,
  "Jake</w>": 3510,
  "Po": 3511,
  "develop": 3512,
  "shoot</w>": 3513,
  "system</w>": 3514,
  "rhyth": 3515,
  "ound": 3516,
  "Ryan</w>": 3517,
  "Briti": 3518,
  "grappling</w>": 3519,
  "recover": 3520,
  "extra</w>": 3521,
  "corner.</w>": 3522,
  "sion": 3523,
  "resi": 3524,
  "TO</w>": 3525,
  "dra": 3526,
  "go,</w>": 3527,
  "rep": 3528,
  "mad</w>": 3529,
  "pop": 3530,
  "sla": 3531,
  "uti": 3532,
  "c</w>": 3533,
  "cell": 3534,
  "Cruz</w>": 3535,
  "pivot</w>": 3536,
  "camp": 3537,
  "atten": 3538,
  "mat</w>": 3539,
  "body,</w>": 3540,
  "Inst": 3541,
  "Maybe</w>": 3542,
  "session</w>": 3543,
  "ys</w>": 3544,
  "Shan": 3545,
  "confidence</w>": 3546,
  "incredible</w>": 3547,
  "mind": 3548,
  "back,</w>": 3549,
  "mit": 3550,
  "Every": 3551,
  "showed</w>": 3552,
  "Braz": 3553,
  "ries</w>": 3554,
  "bringing</w>": 3555,
  "higher</w>": 3556,
  "fine</w>": 3557,
  "coo": 3558,
  "uh,</w>": 3559,
  "sses</w>": 3560,
  "vo": 3561,
  "bility</w>": 3562,
  "ut,</w>": 3563,
  "ments</w>": 3564,
  "Nov": 3565,
  "How": 3566,
  "ried</w>": 3567,
  "mag": 3568,
  "anim": 3569,
  "H</w>": 3570,
  "Go</w>": 3571,
  "athlete</w>": 3572,
  "match.</w>": 3573,
  "ge,</w>": 3574,
  "lo</w>": 3575,
  "ayl": 3576,
  "Usy": 3577,
  "Geor": 3578,
  "Can</w>": 3579,
  "down,</w>": 3580,
  "Af": 3581,
  "repe": 3582,
  "aggressive</w>": 3583,
  "Boom.</w>": 3584,
  "letting</w>": 3585,
  "eather": 3586,
  "so,</w>": 3587,
  "striking</w>": 3588,
  "Ben</w>": 3589,
  "opposite</w>": 3590,
  "Bu": 3591,
  "Fab": 3592,
  "tern": 3593,
  "muscles</w>": 3594,
  "HA": 3595,
  "mma</w>": 3596,
  "anyway</w>": 3597,
  "however</w>": 3598,
  "Yes,</w>": 3599,
  "British</w>": 3600,
  "curr": 3601,
  "drills</w>": 3602,
  "kept</w>": 3603,
  "pop</w>": 3604,
  ";</w>": 3605,
  "tries</w>": 3606,
  "commun": 3607,
  "regu": 3608,
  "ties</w>": 3609,
  "brother</w>": 3610,
  "ern": 3611,
  "Te": 3612,
  "san": 3613,
  "that?</w>": 3614,
  "onto</w>": 3615,
  "exercises</w>": 3616,
  "eld</w>": 3617,
  "uck": 3618,
  "shape</w>": 3619,
  "crowd</w>": 3620,
  "16": 3621,
  "drive</w>": 3622,
  "tough": 3623,
  "spec": 3624,
  "Mex": 3625,
  "terweight</w>": 3626,
  "maj": 3627,
  "ander</w>": 3628,
  "goal</w>": 3629,
  "science</w>": 3630,
  "faster</w>": 3631,
  "Because</w>": 3632,
  "answ": 3633,
  "middleweight</w>": 3634,
  "Cu": 3635,
  "je": 3636,
  "honest</w>": 3637,
  "compete</w>": 3638,
  "doub": 3639,
  "southpaw</w>": 3640,
  "efully</w>": 3641,
  "ina</w>": 3642,
  "losing</w>": 3643,
  "undefeated</w>": 3644,
  "heel</w>": 3645,
  "nobody</w>": 3646,
  "aged</w>": 3647,
  "away.</w>": 3648,
  "wide</w>": 3649,
  "spin": 3650,
  "ups</w>": 3651,
  "cle</w>": 3652,
  "fact": 3653,
  "quickly</w>": 3654,
  "motion</w>": 3655,
  "fla": 3656,
  "exercise</w>": 3657,
  "T.</w>": 3658,
  "within</w>": 3659,
  "shed</w>": 3660,
  "spli": 3661,
  "War": 3662,
  "Joshu": 3663,
  "weird</w>": 3664,
  "inte": 3665,
  "rought</w>": 3666,
  "please</w>": 3667,
  "Jones</w>": 3668,
  "million</w>": 3669,
  "greatest</w>": 3670,
  "wra": 3671,
  "able.</w>": 3672,
  "Pri": 3673,
  "round": 3674,
  "undern": 3675,
  "challen": 3676,
  "IGHT</w>": 3677,
  "special</w>": 3678,
  "John</w>": 3679,
  "tional</w>": 3680,
  "combo</w>": 3681,
  "damage</w>": 3682,
  "fall</w>": 3683,
  "success": 3684,
  "strugg": 3685,
  "title.</w>": 3686,
  "ories</w>": 3687,
  "rate</w>": 3688,
  "ast</w>": 3689,
  "Conn": 3690,
  "Some": 3691,
  "mess": 3692,
  "entire</w>": 3693,
  "cting</w>": 3694,
  "basic</w>": 3695,
  "easier</w>": 3696,
  "be.</w>": 3697,
  "forget</w>": 3698,
  "damn</w>": 3699,
  "Leon": 3700,
  "specific</w>": 3701,
  "z,</w>": 3702,
  "ester": 3703,
  "absolute</w>": 3704,
  "tainly</w>": 3705,
  "After</w>": 3706,
  "needed</w>": 3707,
  "ood</w>": 3708,
  "hell</w>": 3709,
  "rules</w>": 3710,
  "helps</w>": 3711,
  "age.</w>": 3712,
  "fru": 3713,
  "nine</w>": 3714,
  "uled</w>": 3715,
  "Another</w>": 3716,
  "ation,</w>": 3717,
  "Two</w>": 3718,
  "perio": 3719,
  "neck</w>": 3720,
  "anced</w>": 3721,
  "floor</w>": 3722,
  "Tayl": 3723,
  "tic": 3724,
  "brought</w>": 3725,
  "Lop": 3726,
  "belts</w>": 3727,
  "0.</w>": 3728,
  "common</w>": 3729,
  "Ter": 3730,
  "uted</w>": 3731,
  "fort</w>": 3732,
  "side,</w>": 3733,
  "kill": 3734,
  "master</w>": 3735,
  "Satur": 3736,
  "pat": 3737,
  "fantastic</w>": 3738,
  "slight": 3739,
  "cover</w>": 3740,
  "comments</w>": 3741,
  "bad": 3742,
  "aroun": 3743,
  "ks.</w>": 3744,
  "rease</w>": 3745,
  "Bri": 3746,
  "ular</w>": 3747,
  "ai</w>": 3748,
  "mental</w>": 3749,
  "ners</w>": 3750,
  "Dani": 3751,
  "hun": 3752,
  "flow</w>": 3753,
  "all,</w>": 3754,
  "cast</w>": 3755,
  "baby</w>": 3756,
  "Ve": 3757,
  "ES": 3758,
  "Chri": 3759,
  "became</w>": 3760,
  "uary</w>": 3761,
  "awe": 3762,
  "happening</w>": 3763,
  "clear</w>": 3764,
  "bar</w>": 3765,
  "due</w>": 3766,
  "Ali</w>": 3767,
  "guard.</w>": 3768,
  "See</w>": 3769,
  "Pa": 3770,
  "target</w>": 3771,
  "funny</w>": 3772,
  "ram</w>": 3773,
  "cannot</w>": 3774,
  "Micha": 3775,
  "ence.</w>": 3776,
  "fli": 3777,
  "career.</w>": 3778,
  "now": 3779,
  "ature</w>": 3780,
  "program</w>": 3781,
  "air</w>": 3782,
  "lay</w>": 3783,
  "guy.</w>": 3784,
  "Ram": 3785,
  "weight.</w>": 3786,
  "ute</w>": 3787,
  "sions</w>": 3788,
  "..": 3789,
  "fur": 3790,
  "camer": 3791,
  "courses</w>": 3792,
  "pac": 3793,
  "cra": 3794,
  "coaches</w>": 3795,
  "buil": 3796,
  "Both</w>": 3797,
  "trans": 3798,
  "fan</w>": 3799,
  "practic": 3800,
  "At</w>": 3801,
  "To": 3802,
  "world.</w>": 3803,
  "vol": 3804,
  "area</w>": 3805,
  "feather": 3806,
  "lex</w>": 3807,
  "Wilder</w>": 3808,
  "gentlemen,</w>": 3809,
  "wise</w>": 3810,
  "friends</w>": 3811,
  "She's</w>": 3812,
  "timing</w>": 3813,
  "see.</w>": 3814,
  "Fight</w>": 3815,
  "spot</w>": 3816,
  "kin": 3817,
  "win.</w>": 3818,
  "friend</w>": 3819,
  "dog</w>": 3820,
  "staying</w>": 3821,
  "elbows</w>": 3822,
  "lack</w>": 3823,
  "stance.</w>": 3824,
  "perfec": 3825,
  "wearing</w>": 3826,
  "cent</w>": 3827,
  "send</w>": 3828,
  "partner</w>": 3829,
  "Even</w>": 3830,
  "victory</w>": 3831,
  "pulling</w>": 3832,
  "p,</w>": 3833,
  "till</w>": 3834,
  "teaching</w>": 3835,
  "Got</w>": 3836,
  "finally</w>": 3837,
  "subscribe</w>": 3838,
  "ena</w>": 3839,
  "flu": 3840,
  "Mon": 3841,
  "look,</w>": 3842,
  "n.</w>": 3843,
  "sorry</w>": 3844,
  "ag</w>": 3845,
  "troduc": 3846,
  "lightweight</w>": 3847,
  "ham": 3848,
  "Fe": 3849,
  "prin": 3850,
  "accur": 3851,
  "Ser": 3852,
  "These</w>": 3853,
  "stick</w>": 3854,
  "ero</w>": 3855,
  "stage</w>": 3856,
  "!</w>": 3857,
  "web": 3858,
  "worry</w>": 3859,
  "Wi": 3860,
  "Man": 3861,
  "future</w>": 3862,
  "following</w>": 3863,
  "certainly</w>": 3864,
  "consider": 3865,
  "ator</w>": 3866,
  "represent": 3867,
  "ss,</w>": 3868,
  "asking</w>": 3869,
  "imagine</w>": 3870,
  "ted.</w>": 3871,
  "Nove": 3872,
  "une</w>": 3873,
  "AR": 3874,
  "OR": 3875,
  "dio</w>": 3876,
  "Jr.</w>": 3877,
  "loss</w>": 3878,
  "trouble</w>": 3879,
  "official</w>": 3880,
  "Good.</w>": 3881,
  "lean</w>": 3882,
  "Your</w>": 3883,
  "aren't</w>": 3884,
  "stronger</w>": 3885,
  "ble": 3886,
  "puts</w>": 3887,
  "lain</w>": 3888,
  "month</w>": 3889,
  "HE": 3890,
  "motiv": 3891,
  "ep.</w>": 3892,
  "multiple</w>": 3893,
  "Why</w>": 3894,
  "seem</w>": 3895,
  "itional</w>": 3896,
  "Per": 3897,
  "forward.</w>": 3898,
  "Fran": 3899,
  "sports</w>": 3900,
  "ush</w>": 3901,
  "ney</w>": 3902,
  "Fur": 3903,
  "stairs</w>": 3904,
  "recomm": 3905,
  "Ha": 3906,
  "setting</w>": 3907,
  "um,</w>": 3908,
  "moved</w>": 3909,
  "List": 3910,
  "size</w>": 3911,
  "new": 3912,
  "18": 3913,
  "Olympic</w>": 3914,
  "fer</w>": 3915,
  "Jap": 3916,
  "provi": 3917,
  "Yes.</w>": 3918,
  "Jiu-": 3919,
  "Heat.</w>": 3920,
  "done.</w>": 3921,
  "am.</w>": 3922,
  "verage</w>": 3923,
  "allow</w>": 3924,
  "pod": 3925,
  "uppercut.</w>": 3926,
  "vir": 3927,
  "Some</w>": 3928,
  "eventually</w>": 3929,
  "cipl": 3930,
  "top.</w>": 3931,
  "Thre": 3932,
  "sets</w>": 3933,
  "yester": 3934,
  "smart</w>": 3935,
  "consist": 3936,
  "tor": 3937,
  "likely</w>": 3938,
  "immediately</w>": 3939,
  "slightly</w>": 3940,
  "power.</w>": 3941,
  "d's</w>": 3942,
  "protect</w>": 3943,
  "watched</w>": 3944,
  "log": 3945,
  "moments</w>": 3946,
  "40</w>": 3947,
  "augh": 3948,
  "GO": 3949,
  "el.</w>": 3950,
  "Round</w>": 3951,
  "compar": 3952,
  "shows</w>": 3953,
  "closer</w>": 3954,
  "All": 3955,
  "tension</w>": 3956,
  "Fin": 3957,
  "lots</w>": 3958,
  "ond": 3959,
  "11</w>": 3960,
  "16</w>": 3961,
  "underneath</w>": 3962,
  "effectiv": 3963,
  "We've</w>": 3964,
  "sequ": 3965,
  "American</w>": 3966,
  "Pu": 3967,
  "increase</w>": 3968,
  "discipl": 3969,
  "jour": 3970,
  "ture</w>": 3971,
  "mb</w>": 3972,
  "no,</w>": 3973,
  "duck</w>": 3974,
  "abs</w>": 3975,
  "sever": 3976,
  "thanks</w>": 3977,
  "terri": 3978,
  "three.</w>": 3979,
  "hopefully</w>": 3980,
  "strike</w>": 3981,
  "inside.</w>": 3982,
  "centr": 3983,
  "shadow</w>": 3984,
  "arily</w>": 3985,
  "adap": 3986,
  "Bea": 3987,
  "gen": 3988,
  "ring": 3989,
  "after": 3990,
  "wrestl": 3991,
  "tournament</w>": 3992,
  "wear</w>": 3993,
  "seven": 3994,
  "bro.</w>": 3995,
  "ort.</w>": 3996,
  "grou": 3997,
  "massive</w>": 3998,
  "likes</w>": 3999,
  "ER</w>": 4000,
  "ist</w>": 4001,
  "enjoy</w>": 4002,
  "champions</w>": 4003,
  "Gi": 4004,
  "sweep</w>": 4005,
  "ring,</w>": 4006,
  "Very</w>": 4007,
  "ency</w>": 4008,
  "hour</w>": 4009,
  "wer": 4010,
  "shout</w>": 4011,
  "you?</w>": 4012,
  "twice</w>": 4013,
  "typically</w>": 4014,
  "100%</w>": 4015,
  "ame</w>": 4016,
  "duled</w>": 4017,
  "downs</w>": 4018,
  "clinch</w>": 4019,
  "memb": 4020,
  "fund": 4021,
  "Fir": 4022,
  "honestly</w>": 4023,
  "argu": 4024,
  "rematch</w>": 4025,
  "attention</w>": 4026,
  "welterweight</w>": 4027,
  "ities</w>": 4028,
  "serious</w>": 4029,
  "199": 4030,
  "end.</w>": 4031,
  "ek": 4032,
  "que</w>": 4033,
  "pound</w>": 4034,
  "at,</w>": 4035,
  "signed</w>": 4036,
  "And": 4037,
  "We'll</w>": 4038,
  "v</w>": 4039,
  "Great</w>": 4040,
  "draw</w>": 4041,
  "Look,</w>": 4042,
  "punches,</w>": 4043,
  "Right.</w>": 4044,
  "Again": 4045,
  "ies</w>": 4046,
  "via</w>": 4047,
  "produc": 4048,
  "Europe": 4049,
  "avoid</w>": 4050,
  "split</w>": 4051,
  "Fo": 4052,
  "ay?</w>": 4053,
  "food</w>": 4054,
  "iu</w>": 4055,
  "breathe</w>": 4056,
  "post</w>": 4057,
  "much.</w>": 4058,
  "ush": 4059,
  "gin": 4060,
  "fourth</w>": 4061,
  "natural</w>": 4062,
  "or,</w>": 4063,
  "ations.</w>": 4064,
  "Americ": 4065,
  "scheduled</w>": 4066,
  "draw": 4067,
  "initi": 4068,
  "shoo": 4069,
  "metho": 4070,
  "break": 4071,
  "Like,</w>": 4072,
  "cred": 4073,
  "Dev": 4074,
  "hor": 4075,
  "Are</w>": 4076,
  "Shakur</w>": 4077,
  "don": 4078,
  "fil": 4079,
  "match": 4080,
  "pen": 4081,
  "za": 4082,
  "wrist</w>": 4083,
  "agram</w>": 4084,
  "atch</w>": 4085,
  "ic.</w>": 4086,
  "V</w>": 4087,
  "icky</w>": 4088,
  "en's</w>": 4089,
  "50": 4090,
  "injury</w>": 4091,
  "media</w>": 4092,
  "lish</w>": 4093,
  "fif": 4094,
  "za</w>": 4095,
  "enko</w>": 4096,
  "stop": 4097,
  "particular</w>": 4098,
  "pan": 4099,
  "sign</w>": 4100,
  "changed</w>": 4101,
  "ll-": 4102,
  "cking</w>": 4103,
  "No.</w>": 4104,
  "levels</w>": 4105,
  "deal": 4106,
  "pose</w>": 4107,
  "pict": 4108,
  "sa</w>": 4109,
  "focused</w>": 4110,
  "challenge</w>": 4111,
  "gold</w>": 4112,
  "dat": 4113,
  "ance.</w>": 4114,
  "trav": 4115,
  "enever</w>": 4116,
  "attacks</w>": 4117,
  "show": 4118,
  "chat</w>": 4119,
  "IN</w>": 4120,
  "to.</w>": 4121,
  "glove</w>": 4122,
  "pie": 4123,
  "what?</w>": 4124,
  "US": 4125,
  "ous.</w>": 4126,
  "thous": 4127,
  "17": 4128,
  "themselves</w>": 4129,
  "?\"</w>": 4130,
  "kar": 4131,
  "kickboxing</w>": 4132,
  "Willi": 4133,
  "announced</w>": 4134,
  "ute": 4135,
  "dad</w>": 4136,
  "passing</w>": 4137,
  "ging</w>": 4138,
  "cru": 4139,
  "fit</w>": 4140,
  "Rober": 4141,
  "job": 4142,
  "lb</w>": 4143,
  "Fl": 4144,
  "correct</w>": 4145,
  "breathing</w>": 4146,
  "super": 4147,
  "achi": 4148,
  "develop</w>": 4149,
  "ick.</w>": 4150,
  "feet.</w>": 4151,
  "content</w>": 4152,
  "ever.</w>": 4153,
  "share</w>": 4154,
  "realize</w>": 4155,
  "lad": 4156,
  "above</w>": 4157,
  "ament": 4158,
  "previ": 4159,
  "mine</w>": 4160,
  "emo": 4161,
  "hate</w>": 4162,
  "featherweight</w>": 4163,
  "twi": 4164,
  "as.</w>": 4165,
  "nerv": 4166,
  "cog": 4167,
  "sna": 4168,
  "les,</w>": 4169,
  "unless</w>": 4170,
  "simply</w>": 4171,
  "sleep</w>": 4172,
  "defending</w>": 4173,
  "guy's</w>": 4174,
  "deta": 4175,
  "shouldn't</w>": 4176,
  "Hear": 4177,
  "ail": 4178,
  "intensity</w>": 4179,
  "tire": 4180,
  "knowle": 4181,
  "dly</w>": 4182,
  "life": 4183,
  "awesome</w>": 4184,
  "ont": 4185,
  "fist</w>": 4186,
  "hang</w>": 4187,
  "division.</w>": 4188,
  "Har": 4189,
  "scored</w>": 4190,
  "impact</w>": 4191,
  "dropped</w>": 4192,
  "ity.</w>": 4193,
  "phone</w>": 4194,
  "buy</w>": 4195,
  "confident</w>": 4196,
  "excell": 4197,
  "ounce</w>": 4198,
  "mate.</w>": 4199,
  "missed</w>": 4200,
  "stuff.</w>": 4201,
  "champion,</w>": 4202,
  "Mark</w>": 4203,
  "speak</w>": 4204,
  "prou": 4205,
  "Jan": 4206,
  "sear": 4207,
  "Pi": 4208,
  "ee": 4209,
  "Frank</w>": 4210,
  "fall": 4211,
  "comment": 4212,
  "nose</w>": 4213,
  "changes</w>": 4214,
  "exper": 4215,
  "Vict": 4216,
  "November</w>": 4217,
  "tle</w>": 4218,
  "Nu": 4219,
  "including</w>": 4220,
  "wow</w>": 4221,
  "ther,</w>": 4222,
  "knuck": 4223,
  "human</w>": 4224,
  "constantly</w>": 4225,
  "hook,</w>": 4226,
  "requi": 4227,
  "beat": 4228,
  "org": 4229,
  "safe</w>": 4230,
  "Michael</w>": 4231,
  "max": 4232,
  "exciting</w>": 4233,
  "point.</w>": 4234,
  "stands</w>": 4235,
  "flex": 4236,
  "Tom": 4237,
  "ee</w>": 4238,
  "rounds,</w>": 4239,
  "ke.</w>": 4240,
  "quality</w>": 4241,
  "Bro": 4242,
  "lifting</w>": 4243,
  "father</w>": 4244,
  "Tim": 4245,
  "competing</w>": 4246,
  "ety</w>": 4247,
  "duce</w>": 4248,
  "s)</w>": 4249,
  "relax</w>": 4250,
  "Jiu-Jitsu</w>": 4251,
  "25</w>": 4252,
  "Did</w>": 4253,
  "Who</w>": 4254,
  "woman</w>": 4255,
  "further</w>": 4256,
  "two": 4257,
  "1,</w>": 4258,
  "disputed</w>": 4259,
  "knockout.</w>": 4260,
  "sharp</w>": 4261,
  "bla": 4262,
  "els</w>": 4263,
  "ST": 4264,
  "To</w>": 4265,
  "Her": 4266,
  "acy</w>": 4267,
  "comment</w>": 4268,
  "Pr": 4269,
  "choo": 4270,
  "lun": 4271,
  "life.</w>": 4272,
  "va</w>": 4273,
  "aging</w>": 4274,
  "ption</w>": 4275,
  "thing's</w>": 4276,
  "Si": 4277,
  "piece</w>": 4278,
  "fundament": 4279,
  "-up</w>": 4280,
  "car</w>": 4281,
  "several</w>": 4282,
  "jitsu": 4283,
  "Nav": 4284,
  "movements</w>": 4285,
  "pin": 4286,
  "performanc": 4287,
  "progre": 4288,
  "older</w>": 4289,
  "chi": 4290,
  "enty</w>": 4291,
  "Connor</w>": 4292,
  "Matt</w>": 4293,
  "Jer": 4294,
  "choke</w>": 4295,
  "AT</w>": 4296,
  "Tur": 4297,
  "Luc": 4298,
  "Daniel</w>": 4299,
  "yeah.</w>": 4300,
  "sudd": 4301,
  "battle</w>": 4302,
  "not.</w>": 4303,
  "verse</w>": 4304,
  "dea": 4305,
  "he'd</w>": 4306,
  "sse": 4307,
  "met</w>": 4308,
  "histor": 4309,
  "game.</w>": 4310,
  "none</w>": 4311,
  "5,</w>": 4312,
  "Ladies</w>": 4313,
  "facing</w>": 4314,
  "personal</w>": 4315,
  "Steven": 4316,
  "he?</w>": 4317,
  "fy</w>": 4318,
  "year.</w>": 4319,
  "var": 4320,
  "advan": 4321,
  "male</w>": 4322,
  "AC": 4323,
  "19</w>": 4324,
  "asing</w>": 4325,
  "sug": 4326,
  "reps</w>": 4327,
  "normal</w>": 4328,
  "Han": 4329,
  "website</w>": 4330,
  "spr": 4331,
  "luc": 4332,
  "Fri": 4333,
  "fair</w>": 4334,
  "ego</w>": 4335,
  "worth</w>": 4336,
  "opinion</w>": 4337,
  "demon": 4338,
  "arm": 4339,
  "adju": 4340,
  "you'd</w>": 4341,
  "half": 4342,
  "held</w>": 4343,
  "Yor": 4344,
  "fing": 4345,
  "George</w>": 4346,
  "enter": 4347,
  "notic": 4348,
  "list</w>": 4349,
  "angles</w>": 4350,
  "2.</w>": 4351,
  "social</w>": 4352,
  "tip</w>": 4353,
  "Er": 4354,
  "Dece": 4355,
  "rhythm</w>": 4356,
  "thy</w>": 4357,
  "rotation</w>": 4358,
  "sound</w>": 4359,
  "cover": 4360,
  "era</w>": 4361,
  "beating</w>": 4362,
  "frustr": 4363,
  "KO</w>": 4364,
  "momentum</w>": 4365,
  "workouts</w>": 4366,
  "BJ": 4367,
  "2,</w>": 4368,
  "Lo": 4369,
  "morning</w>": 4370,
  "version</w>": 4371,
  "ased</w>": 4372,
  "WBO</w>": 4373,
  "disc": 4374,
  "volu": 4375,
  "combat</w>": 4376,
  "doll": 4377,
  "You've</w>": 4378,
  "ffici": 4379,
  "later": 4380,
  "circu": 4381,
  "ready.</w>": 4382,
  "ball": 4383,
  "whenever</w>": 4384,
  "ma</w>": 4385,
  "about.</w>": 4386,
  "sof": 4387,
  "l,</w>": 4388,
  "gs</w>": 4389,
  "sea": 4390,
  "actual</w>": 4391,
  "knockdown</w>": 4392,
  "WBA</w>": 4393,
  "ock": 4394,
  "successful</w>": 4395,
  "weren't</w>": 4396,
  "fights,</w>": 4397,
  "relation": 4398,
  "careful</w>": 4399,
  "heavi": 4400,
  "nic": 4401,
  "contr": 4402,
  "pain</w>": 4403,
  "deser": 4404,
  "guys,</w>": 4405,
  "opponent.</w>": 4406,
  "taught</w>": 4407,
  "son,</w>": 4408,
  "brilli": 4409,
  "proper": 4410,
  "However,</w>": 4411,
  "positions</w>": 4412,
  "base</w>": 4413,
  "et,</w>": 4414,
  "ter.</w>": 4415,
  "May</w>": 4416,
  "orter</w>": 4417,
  "offense</w>": 4418,
  "ladies</w>": 4419,
  "thu": 4420,
  "wanting</w>": 4421,
  "Sports</w>": 4422,
  "add": 4423,
  "quez</w>": 4424,
  "degre": 4425,
  "depends</w>": 4426,
  "jumping</w>": 4427,
  "orthodox</w>": 4428,
  "changing</w>": 4429,
  "plain": 4430,
  "Whi": 4431,
  "shing</w>": 4432,
  "enough": 4433,
  "Josh</w>": 4434,
  "nific": 4435,
  "sport": 4436,
  "risk</w>": 4437,
  "dom</w>": 4438,
  "faint</w>": 4439,
  "stream</w>": 4440,
  "strikes</w>": 4441,
  "cept</w>": 4442,
  "desp": 4443,
  "Shane</w>": 4444,
  "correc": 4445,
  "so.</w>": 4446,
  "D.</w>": 4447,
  "tion,</w>": 4448,
  "explosive</w>": 4449,
  "bs</w>": 4450,
  "willing</w>": 4451,
  "meet</w>": 4452,
  "saying?</w>": 4453,
  "Alex": 4454,
  "around.</w>": 4455,
  "t-": 4456,
  "work,</w>": 4457,
  "better.</w>": 4458,
  "Sil": 4459,
  "Joshua</w>": 4460,
  "scoring</w>": 4461,
  "az</w>": 4462,
  "transit": 4463,
  "AT": 4464,
  "necessarily</w>": 4465,
  "music": 4466,
  "strategy</w>": 4467,
  "street</w>": 4468,
  "rece": 4469,
  "podcast</w>": 4470,
  "seconds.</w>": 4471,
  "allowed</w>": 4472,
  "fortun": 4473,
  "contact</w>": 4474,
  "eating</w>": 4475,
  "foot.</w>": 4476,
  "por": 4477,
  "Gon": 4478,
  "face.</w>": 4479,
  "5.</w>": 4480,
  "breath</w>": 4481,
  "decision.</w>": 4482,
  "extrem": 4483,
  "dest</w>": 4484,
  "going.</w>": 4485,
  "wall</w>": 4486,
  "Champion</w>": 4487,
  "unanim": 4488,
  "ised</w>": 4489,
  "ful.</w>": 4490,
  "calling</w>": 4491,
  "becomes</w>": 4492,
  "neg": 4493,
  "Mag": 4494,
  "Dur": 4495,
  "iso": 4496,
  "Eub": 4497,
  "ph</w>": 4498,
  "Lom": 4499,
  "backwards</w>": 4500,
  "minute": 4501,
  "wher": 4502,
  "ez.</w>": 4503,
  "living</w>": 4504,
  "years.</w>": 4505,
  "Lou": 4506,
  "int": 4507,
  "recommend</w>": 4508,
  "ves.</w>": 4509,
  "yed</w>": 4510,
  "Mas": 4511,
  "did.</w>": 4512,
  "rule</w>": 4513,
  "Usyk</w>": 4514,
  "18</w>": 4515,
  "mix</w>": 4516,
  "hol": 4517,
  "hear": 4518,
  "ram": 4519,
  "pay": 4520,
  "Number</w>": 4521,
  "totally</w>": 4522,
  "favor</w>": 4523,
  "quar": 4524,
  "sion,</w>": 4525,
  "ast": 4526,
  "30": 4527,
  "row</w>": 4528,
  "advice</w>": 4529,
  "leg.</w>": 4530,
  "advanta": 4531,
  "ion,</w>": 4532,
  "uppercuts</w>": 4533,
  "smo": 4534,
  "combo": 4535,
  "self-defense</w>": 4536,
  "experienced</w>": 4537,
  "boxing": 4538,
  "lean": 4539,
  "Of</w>": 4540,
  "as,</w>": 4541,
  "words</w>": 4542,
  "helping</w>": 4543,
  "survi": 4544,
  "awar": 4545,
  "ya</w>": 4546,
  "Eng": 4547,
  "Championship</w>": 4548,
  "los</w>": 4549,
  "head,</w>": 4550,
  "col": 4551,
  "turns</w>": 4552,
  "HO": 4553,
  "Rom": 4554,
  "extremely</w>": 4555,
  "na</w>": 4556,
  "ult</w>": 4557,
  "March</w>": 4558,
  "Taylor</w>": 4559,
  "100": 4560,
  "HE</w>": 4561,
  "ADC": 4562,
  "proper</w>": 4563,
  "kicking</w>": 4564,
  "Absolut": 4565,
  "Ob": 4566,
  "Again,</w>": 4567,
  "wonder</w>": 4568,
  "Whit": 4569,
  "stretch</w>": 4570,
  "pounds</w>": 4571,
  "x.</w>": 4572,
  "relaxed</w>": 4573,
  "dent</w>": 4574,
  "though,</w>": 4575,
  "non-": 4576,
  "squat</w>": 4577,
  "Smi": 4578,
  "slow": 4579,
  "crit": 4580,
  "knowing</w>": 4581,
  "rely</w>": 4582,
  "episo": 4583,
  "dict": 4584,
  "tap</w>": 4585,
  "E.</w>": 4586,
  "pub": 4587,
  "EN": 4588,
  "separ": 4589,
  "First</w>": 4590,
  "fighter,</w>": 4591,
  "ell": 4592,
  "king.</w>": 4593,
  "ously,</w>": 4594,
  "hits</w>": 4595,
  "Hea": 4596,
  "breaking</w>": 4597,
  "line.</w>": 4598,
  "followed</w>": 4599,
  "ances</w>": 4600,
  "European</w>": 4601,
  "enter</w>": 4602,
  "g.</w>": 4603,
  "unanimous</w>": 4604,
  "stea": 4605,
  "excep": 4606,
  "Gabri": 4607,
  "set": 4608,
  "ared</w>": 4609,
  "excellent</w>": 4610,
  "wish</w>": 4611,
  "14</w>": 4612,
  "logy</w>": 4613,
  "forth</w>": 4614,
  "sma": 4615,
  "yep</w>": 4616,
  "mea": 4617,
  "pulled</w>": 4618,
  "nature</w>": 4619,
  "process</w>": 4620,
  "anding</w>": 4621,
  "Mart": 4622,
  "total</w>": 4623,
  "shir": 4624,
  "remain": 4625,
  "ock</w>": 4626,
  "involved</w>": 4627,
  "field</w>": 4628,
  "Thom": 4629,
  "proud</w>": 4630,
  "less": 4631,
  "phi": 4632,
  "moment.</w>": 4633,
  "happen.</w>": 4634,
  "tie</w>": 4635,
  "own.</w>": 4636,
  "intell": 4637,
  "Hu": 4638,
  "self,</w>": 4639,
  "eg": 4640,
  "slipping</w>": 4641,
  "smoo": 4642,
  "targe": 4643,
  "regular</w>": 4644,
  "Orti": 4645,
  "ships</w>": 4646,
  "recovery</w>": 4647,
  "hydr": 4648,
  "demonstr": 4649,
  "normally</w>": 4650,
  "Jon": 4651,
  "deter": 4652,
  "Na": 4653,
  "Ra": 4654,
  "ON</w>": 4655,
  "weapon</w>": 4656,
  "Lopez</w>": 4657,
  "shift</w>": 4658,
  "star</w>": 4659,
  "utili": 4660,
  "traditional</w>": 4661,
  "So": 4662,
  "Ray</w>": 4663,
  "tric": 4664,
  "fitness</w>": 4665,
  "stom": 4666,
  "helped</w>": 4667,
  "KO": 4668,
  "gn</w>": 4669,
  "ddy</w>": 4670,
  "ilian</w>": 4671,
  "ps.</w>": 4672,
  "imum</w>": 4673,
  "grat": 4674,
  "dest": 4675,
  "schoo": 4676,
  "ads</w>": 4677,
  "built</w>": 4678,
  "4,</w>": 4679,
  "Every</w>": 4680,
  "ki</w>": 4681,
  "mixed</w>": 4682,
  "7,</w>": 4683,
  "entertain": 4684,
  "click</w>": 4685,
  "allows</w>": 4686,
  "to,</w>": 4687,
  "ate.</w>": 4688,
  "Vi": 4689,
  "ES</w>": 4690,
  "before.</w>": 4691,
  "secu": 4692,
  "girl</w>": 4693,
  "smi": 4694,
  "Instagram</w>": 4695,
  "hands.</w>": 4696,
  "val</w>": 4697,
  "RIGHT</w>": 4698,
  "ef</w>": 4699,
  "interested</w>": 4700,
  "great": 4701,
  "Tim</w>": 4702,
  "prev": 4703,
  "expo": 4704,
  "puncher</w>": 4705,
  "speaking</w>": 4706,
  "45</w>": 4707,
  "om,</w>": 4708,
  "punch,</w>": 4709,
  "ond</w>": 4710,
  "ils</w>": 4711,
  "sessions</w>": 4712,
  "'t.</w>": 4713,
  "triangle</w>": 4714,
  "smaller</w>": 4715,
  "arti": 4716,
  "calm</w>": 4717,
  "fifth</w>": 4718,
  "Gonza": 4719,
  "faced</w>": 4720,
  "dominant</w>": 4721,
  "brac": 4722,
  "reaction</w>": 4723,
  "nearly</w>": 4724,
  "trun": 4725,
  "Year</w>": 4726,
  "ssion.</w>": 4727,
  "ant.</w>": 4728,
  "kill</w>": 4729,
  "recog": 4730,
  "king,</w>": 4731,
  "Any": 4732,
  "frea": 4733,
  "coaching</w>": 4734,
  "general</w>": 4735,
  "Nick</w>": 4736,
  "worst</w>": 4737,
  "today.</w>": 4738,
  "pain": 4739,
  "three,</w>": 4740,
  "tor</w>": 4741,
  "access</w>": 4742,
  "lov": 4743,
  "Las</w>": 4744,
  "puni": 4745,
  "vs.</w>": 4746,
  "impressive</w>": 4747,
  "Leonard</w>": 4748,
  "Gonzale": 4749,
  "spi": 4750,
  "confer": 4751,
  "near</w>": 4752,
  "6,</w>": 4753,
  "reg": 4754,
  "finding</w>": 4755,
  "mistake</w>": 4756,
  "plenty</w>": 4757,
  "paid</w>": 4758,
  "wonder": 4759,
  "explain</w>": 4760,
  "plus</w>": 4761,
  "period</w>": 4762,
  "description</w>": 4763,
  "igh</w>": 4764,
  "vision</w>": 4765,
  "But,</w>": 4766,
  "mo</w>": 4767,
  "litsch": 4768,
  "born</w>": 4769,
  "things.</w>": 4770,
  "predic": 4771,
  "scorecar": 4772,
  "complete</w>": 4773,
  "champ</w>": 4774,
  "brings</w>": 4775,
  "escap": 4776,
  "South</w>": 4777,
  "signific": 4778,
  "ded.</w>": 4779,
  "mindset</w>": 4780,
  "fair": 4781,
  "surprised</w>": 4782,
  "Peop": 4783,
  "stuck</w>": 4784,
  "Andy</w>": 4785,
  "jiu-jitsu": 4786,
  "easily</w>": 4787,
  "ning.</w>": 4788,
  "n,</w>": 4789,
  "Nor": 4790,
  "debut</w>": 4791,
  "rotate</w>": 4792,
  "ight?</w>": 4793,
  "Apri": 4794,
  "ankle</w>": 4795,
  "3,</w>": 4796,
  "nervous</w>": 4797,
  "nin": 4798,
  "yweight</w>": 4799,
  "icip": 4800,
  "good": 4801,
  "decided</w>": 4802,
  "continues</w>": 4803,
  "fat</w>": 4804,
  "dropping</w>": 4805,
  "toe</w>": 4806,
  "Obvi": 4807,
  "de,</w>": 4808,
  "Klitsch": 4809,
  "created</w>": 4810,
  "Eli": 4811,
  "beginner</w>": 4812,
  "catching</w>": 4813,
  "Jack</w>": 4814,
  "jabs</w>": 4815,
  "postu": 4816,
  "fly</w>": 4817,
  "spar</w>": 4818,
  "Andre": 4819,
  "community</w>": 4820,
  "’s</w>": 4821,
  "representing</w>": 4822,
  "convers": 4823,
  "sil": 4824,
  "anal": 4825,
  "ia</w>": 4826,
  "spect</w>": 4827,
  "December</w>": 4828,
  "UFC": 4829,
  "them,</w>": 4830,
  "Rodri": 4831,
  "reality</w>": 4832,
  "S.</w>": 4833,
  "le's</w>": 4834,
  "Listen,</w>": 4835,
  "origin": 4836,
  "Saturday</w>": 4837,
  "lie</w>": 4838,
  "an's</w>": 4839,
  "13</w>": 4840,
  "training.</w>": 4841,
  "spinning</w>": 4842,
  "anta</w>": 4843,
  "Wal": 4844,
  "approach</w>": 4845,
  "consci": 4846,
  "finished</w>": 4847,
  "rope</w>": 4848,
  "through.</w>": 4849,
  "doing.</w>": 4850,
  "Chi": 4851,
  "everything.</w>": 4852,
  "dy": 4853,
  "lad</w>": 4854,
  "national</w>": 4855,
  "sides</w>": 4856,
  "ority</w>": 4857,
  "classes</w>": 4858,
  "closed</w>": 4859,
  "gun</w>": 4860,
  "Pre": 4861,
  "ot": 4862,
  "picking</w>": 4863,
  "Martin": 4864,
  "recover</w>": 4865,
  "roc": 4866,
  "yesterday</w>": 4867,
  "sounds</w>": 4868,
  "Back</w>": 4869,
  "bir": 4870,
  "camera</w>": 4871,
  "issue</w>": 4872,
  "forear": 4873,
  "Kn": 4874,
  "tend</w>": 4875,
  "meant</w>": 4876,
  "recently</w>": 4877,
  "fear</w>": 4878,
  "ment.</w>": 4879,
  "stan": 4880,
  "hard.</w>": 4881,
  "prepared</w>": 4882,
  "RO": 4883,
  "way": 4884,
  "teach": 4885,
  "spend</w>": 4886,
  "carry</w>": 4887,
  "gotten</w>": 4888,
  "together.</w>": 4889,
  "attempt</w>": 4890,
  "knowledge</w>": 4891,
  "expected</w>": 4892,
  "AL": 4893,
  "Cam": 4894,
  "anging</w>": 4895,
  "24</w>": 4896,
  "physically</w>": 4897,
  "stem": 4898,
  "essen": 4899,
  "Paul": 4900,
  "CO": 4901,
  "sport.</w>": 4902,
  "eps</w>": 4903,
  "Hop": 4904,
  "highly</w>": 4905,
  "conte": 4906,
  "us,</w>": 4907,
  "8,</w>": 4908,
  "far.</w>": 4909,
  "da</w>": 4910,
  "Sar": 4911,
  "height</w>": 4912,
  "state</w>": 4913,
  "gratul": 4914,
  "term</w>": 4915,
  "Oc": 4916,
  "Valde": 4917,
  "sam": 4918,
  "ged</w>": 4919,
  "weight,</w>": 4920,
  "With</w>": 4921,
  "charac": 4922,
  "controlling</w>": 4923,
  "air": 4924,
  "youtu": 4925,
  "possibly</w>": 4926,
  "value</w>": 4927,
  "Gra": 4928,
  "troducing</w>": 4929,
  "belt.</w>": 4930,
  "Ham": 4931,
  "Var": 4932,
  "Sep": 4933,
  "fighters.</w>": 4934,
  "Most</w>": 4935,
  "Andre</w>": 4936,
  "this": 4937,
  "great.</w>": 4938,
  "picked</w>": 4939,
  "stic": 4940,
  "locked</w>": 4941,
  "potential</w>": 4942,
  "wrong": 4943,
  "doubt</w>": 4944,
  "no.</w>": 4945,
  "major</w>": 4946,
  "anymore</w>": 4947,
  "Donai": 4948,
  "reli": 4949,
  "regar": 4950,
  "grappl": 4951,
  "stup": 4952,
  "forni": 4953,
  "sively</w>": 4954,
  "ey.</w>": 4955,
  "lic</w>": 4956,
  "ano</w>": 4957,
  "everybody's</w>": 4958,
  "online</w>": 4959,
  "generally</w>": 4960,
  "Septe": 4961,
  "hund": 4962,
  "Diaz</w>": 4963,
  "HI": 4964,
  "problems</w>": 4965,
  "leading</w>": 4966,
  "flying</w>": 4967,
  "estab": 4968,
  "thoughts</w>": 4969,
  "ses.</w>": 4970,
  "ema": 4971,
  "students</w>": 4972,
  "Ton": 4973,
  "realist": 4974,
  "effort</w>": 4975,
  "moder": 4976,
  "understanding</w>": 4977,
  "potentially</w>": 4978,
  "something.</w>": 4979,
  "Jim": 4980,
  "People</w>": 4981,
  "styles</w>": 4982,
  "Grand</w>": 4983,
  "advanced</w>": 4984,
  "prove</w>": 4985,
  "Fre": 4986,
  "Ger": 4987,
  "Fighter</w>": 4988,
  "return</w>": 4989,
  "direction</w>": 4990,
  "progr": 4991,
  "Dave</w>": 4992,
  "button</w>": 4993,
  "maintain</w>": 4994,
  "leaning</w>": 4995,
  "group</w>": 4996,
  "sh.</w>": 4997,
  "yle</w>": 4998,
  "Cali": 4999,
  "acking</w>": 5000,
  "Rodrigu": 5001,
  "competitive</w>": 5002,
  "dealing</w>": 5003,
  "message</w>": 5004,
  "search</w>": 5005,
  "ADCC</w>": 5006,
  "ated.</w>": 5007,
  "charge</w>": 5008,
  "Ring</w>": 5009,
  "ayed</w>": 5010,
  "combination.</w>": 5011,
  "driving</w>": 5012,
  "study</w>": 5013,
  "highest</w>": 5014,
  "missing</w>": 5015,
  "average</w>": 5016,
  "atigu": 5017,
  "Febr": 5018,
  "unbeliev": 5019,
  "Coll": 5020,
  "stance,</w>": 5021,
  "Go.</w>": 5022,
  "viol": 5023,
  "think,</w>": 5024,
  "ante": 5025,
  "del": 5026,
  "becoming</w>": 5027,
  "Juli": 5028,
  "enn": 5029,
  "wild</w>": 5030,
  "aware</w>": 5031,
  "ented</w>": 5032,
  "zation</w>": 5033,
  "NO": 5034,
  "tank</w>": 5035,
  "jec": 5036,
  "personally</w>": 5037,
  "excit": 5038,
  "sent</w>": 5039,
  "ender</w>": 5040,
  "Or</w>": 5041,
  "join</w>": 5042,
  "llo</w>": 5043,
  "Brazilian</w>": 5044,
  "Brad": 5045,
  "Danny</w>": 5046,
  "60</w>": 5047,
  "3.</w>": 5048,
  "ian</w>": 5049,
  "trust</w>": 5050,
  "doct": 5051,
  "post": 5052,
  "credit</w>": 5053,
  "ens</w>": 5054,
  "Lee</w>": 5055,
  "names</w>": 5056,
  "Jeff</w>": 5057,
  "fatigu": 5058,
  "other.</w>": 5059,
  "memor": 5060,
  "thinks</w>": 5061,
  "ty.</w>": 5062,
  "somewhere</w>": 5063,
  "boxed</w>": 5064,
  "Octo": 5065,
  "moun": 5066,
  "begin</w>": 5067,
  "pati": 5068,
  "date</w>": 5069,
  "overall</w>": 5070,
  "previous</w>": 5071,
  "board</w>": 5072,
  "fake</w>": 5073,
  "hard": 5074,
  "reading</w>": 5075,
  "ping</w>": 5076,
  "one-": 5077,
  "health</w>": 5078,
  "compared</w>": 5079,
  "weighed</w>": 5080,
  "snap</w>": 5081,
  "ski": 5082,
  "pe.</w>": 5083,
  "stood</w>": 5084,
  "raise</w>": 5085,
  "4.</w>": 5086,
  "thro": 5087,
  "injuries</w>": 5088,
  "mouth</w>": 5089,
  "gan</w>": 5090,
  "chest": 5091,
  "gym.</w>": 5092,
  "ner.</w>": 5093,
  "eping</w>": 5094,
  "lateral</w>": 5095,
  "\".</w>": 5096,
  "broke</w>": 5097,
  "amateur": 5098,
  "Lomach": 5099,
  "tall</w>": 5100,
  "child": 5101,
  "reasons</w>": 5102,
  "Mill": 5103,
  "Really</w>": 5104,
  "Watch</w>": 5105,
  "EL": 5106,
  "gging</w>": 5107,
  "naturally</w>": 5108,
  "cele": 5109,
  "uper</w>": 5110,
  "ico</w>": 5111,
  "others</w>": 5112,
  "clearly</w>": 5113,
  "drink</w>": 5114,
  "scores</w>": 5115,
  "A.</w>": 5116,
  "people.</w>": 5117,
  "judge</w>": 5118,
  "undisputed</w>": 5119,
  "action.</w>": 5120,
  "6.</w>": 5121,
  "year-": 5122,
  "karate</w>": 5123,
  "hurt.</w>": 5124,
  "short": 5125,
  "grab": 5126,
  "endur": 5127,
  "exec": 5128,
  "busy</w>": 5129,
  "La</w>": 5130,
  "James</w>": 5131,
  "creating</w>": 5132,
  "Che": 5133,
  "music</w>": 5134,
  "effici": 5135,
  "IT": 5136,
  "alm</w>": 5137,
  "vac": 5138,
  "warm": 5139,
  "From</w>": 5140,
  "als.</w>": 5141,
  "stly</w>": 5142,
  "truly</w>": 5143,
  "two-": 5144,
  "iled</w>": 5145,
  "Pl": 5146,
  "Bell": 5147,
  "organi": 5148,
  "Johnny</w>": 5149,
  "Sco": 5150,
  "younger</w>": 5151,
  "there": 5152,
  "OF</w>": 5153,
  "timate</w>": 5154,
  "issues</w>": 5155,
  "blocking</w>": 5156,
  "country</w>": 5157,
  "Left</w>": 5158,
  "IBF</w>": 5159,
  "ekwon": 5160,
  "for.</w>": 5161,
  "cording</w>": 5162,
  "perspec": 5163,
  "table</w>": 5164,
  "Russell</w>": 5165,
  "sour": 5166,
  "Take</w>": 5167,
  "son's</w>": 5168,
  "Lucas</w>": 5169,
  "Californi": 5170,
  "liver</w>": 5171,
  "god</w>": 5172,
  "first.</w>": 5173,
  "ess.</w>": 5174,
  "warm</w>": 5175,
  "adjust": 5176,
  "ely,</w>": 5177,
  "girls</w>": 5178,
  "adding</w>": 5179,
  "bend</w>": 5180,
  "evin</w>": 5181,
  "Wa": 5182,
  "kni": 5183,
  "beaten</w>": 5184,
  "1.</w>": 5185,
  "poc": 5186,
  "handed</w>": 5187,
  "IT</w>": 5188,
  "position,</w>": 5189,
  "eling</w>": 5190,
  "shots,</w>": 5191,
  "celebr": 5192,
  "stress</w>": 5193,
  "concer": 5194,
  "\"I</w>": 5195,
  "Wel": 5196,
  "Heav": 5197,
  "neu": 5198,
  "level.</w>": 5199,
  "although</w>": 5200,
  "Wow.</w>": 5201,
  "journey</w>": 5202,
  "swing</w>": 5203,
  "educ": 5204,
  "April</w>": 5205,
  "gear</w>": 5206,
  "dividu": 5207,
  "bounce</w>": 5208,
  "ropes.</w>": 5209,
  "thers</w>": 5210,
  "hab": 5211,
  "BJJ</w>": 5212,
  "United</w>": 5213,
  "upperc": 5214,
  "princi": 5215,
  "takedown</w>": 5216,
  "...</w>": 5217,
  "Friday</w>": 5218,
  "Dy": 5219,
  "shown</w>": 5220,
  "handle</w>": 5221,
  "Shadow</w>": 5222,
  "lot.</w>": 5223,
  "psy": 5224,
  "brilliant</w>": 5225,
  "episode</w>": 5226,
  "age,</w>": 5227,
  "WI": 5228,
  "mentally</w>": 5229,
  "ardo</w>": 5230,
  "clus": 5231,
  "fight?</w>": 5232,
  "someone's</w>": 5233,
  "%.</w>": 5234,
  "boys</w>": 5235,
  "individu": 5236,
  "consider</w>": 5237,
  "De</w>": 5238,
  "class": 5239,
  "7.</w>": 5240,
  "Greg": 5241,
  "warri": 5242,
  "semi": 5243,
  "timat": 5244,
  "taller</w>": 5245,
  "war</w>": 5246,
  "gar</w>": 5247,
  "listening</w>": 5248,
  "protein</w>": 5249,
  "guarante": 5250,
  "yet.</w>": 5251,
  "lovely</w>": 5252,
  "See,</w>": 5253,
  "ance,</w>": 5254,
  "den": 5255,
  "ital</w>": 5256,
  "strali": 5257,
  "events</w>": 5258,
  "I'mma</w>": 5259,
  "ar.</w>": 5260,
  "squee": 5261,
  "butt</w>": 5262,
  "anywhere</w>": 5263,
  "audi": 5264,
  "loose</w>": 5265,
  "Martin</w>": 5266,
  "places</w>": 5267,
  "ory.</w>": 5268,
  "ane</w>": 5269,
  "haps</w>": 5270,
  "dream</w>": 5271,
  "range.</w>": 5272,
  "system": 5273,
  "flexi": 5274,
  "Boo": 5275,
  "week.</w>": 5276,
  "ster.</w>": 5277,
  "mistakes</w>": 5278,
  "hot</w>": 5279,
  "choose</w>": 5280,
  "ago.</w>": 5281,
  "veter": 5282,
  "titles</w>": 5283,
  "mark</w>": 5284,
  "Jac": 5285,
  "recei": 5286,
  "are.</w>": 5287,
  "worried</w>": 5288,
  "loves</w>": 5289,
  "alright</w>": 5290,
  "shut</w>": 5291,
  "positive</w>": 5292,
  "pair</w>": 5293,
  "drin": 5294,
  "apart</w>": 5295,
  "volume</w>": 5296,
  "OUN": 5297,
  "Yep.</w>": 5298,
  "saying,</w>": 5299,
  "kin</w>": 5300,
  "Deont": 5301,
  "invest": 5302,
  "exact</w>": 5303,
  "assu": 5304,
  "scream": 5305,
  "good,</w>": 5306,
  "appear": 5307,
  "particularly</w>": 5308,
  "noticed</w>": 5309,
  "net</w>": 5310,
  "ship.</w>": 5311,
  "series</w>": 5312,
  "instance</w>": 5313,
  "dudes</w>": 5314,
  "Adam</w>": 5315,
  "boxes</w>": 5316,
  "toes</w>": 5317,
  "Super</w>": 5318,
  "sey</w>": 5319,
  "t?</w>": 5320,
  "ence,</w>": 5321,
  "mmer</w>": 5322,
  "RE": 5323,
  "depending</w>": 5324,
  "aut": 5325,
  "ier</w>": 5326,
  "Camp</w>": 5327,
  "offensive</w>": 5328,
  "cel": 5329,
  "types</w>": 5330,
  "itself</w>": 5331,
  "Have</w>": 5332,
  "stin</w>": 5333,
  "gyms</w>": 5334,
  "tter</w>": 5335,
  "walked</w>": 5336,
  "see,</w>": 5337,
  "recogni": 5338,
  "ham</w>": 5339,
  "Fabio</w>": 5340,
  "southpaw": 5341,
  "result</w>": 5342,
  "deliver": 5343,
  "scar</w>": 5344,
  "i.</w>": 5345,
  "preci": 5346,
  "intellig": 5347,
  "equ": 5348,
  "Hol": 5349,
  "mission</w>": 5350,
  "Cuz</w>": 5351,
  "snea": 5352,
  "Australi": 5353,
  "York</w>": 5354,
  "ino</w>": 5355,
  "ses,</w>": 5356,
  "ior</w>": 5357,
  "plat": 5358,
  "analy": 5359,
  "exchange</w>": 5360,
  "write</w>": 5361,
  "sponsor": 5362,
  "attacking</w>": 5363,
  "finals</w>": 5364,
  "cardio</w>": 5365,
  "benefit</w>": 5366,
  "Make</w>": 5367,
  "reset</w>": 5368,
  "world,</w>": 5369,
  "Brian</w>": 5370,
  "know?</w>": 5371,
  "avail": 5372,
  "el,</w>": 5373,
  "unior</w>": 5374,
  "Z</w>": 5375,
  "fore</w>": 5376,
  "distance.</w>": 5377,
  "Ken": 5378,
  "Barr": 5379,
  "per-": 5380,
  "guard,</w>": 5381,
  "ks,</w>": 5382,
  "bon": 5383,
  "upstairs</w>": 5384,
  "Eubank</w>": 5385,
  "zone</w>": 5386,
  "d?</w>": 5387,
  "nutr": 5388,
  "ordin": 5389,
  "scared</w>": 5390,
  "June</w>": 5391,
  "acked</w>": 5392,
  "Fore": 5393,
  "Tommy</w>": 5394,
  "bounc": 5395,
  "decide</w>": 5396,
  "youtube</w>": 5397,
  "truth</w>": 5398,
  "ela</w>": 5399,
  "\"Oh,</w>": 5400,
  "apply</w>": 5401,
  "September</w>": 5402,
  "bic": 5403,
  "ets</w>": 5404,
  "relationship</w>": 5405,
  "mit</w>": 5406,
  "October</w>": 5407,
  "accomp": 5408,
  "night": 5409,
  "fell</w>": 5410,
  "February</w>": 5411,
  "broken</w>": 5412,
  "fra": 5413,
  "tt</w>": 5414,
  "huh</w>": 5415,
  "visu": 5416,
  "acting</w>": 5417,
  "considered</w>": 5418,
  "jiu</w>": 5419,
  "seemed</w>": 5420,
  "circle</w>": 5421,
  "hammad</w>": 5422,
  "int</w>": 5423,
  "ist": 5424,
  "effect</w>": 5425,
  "friend": 5426,
  "leaving</w>": 5427,
  "loading</w>": 5428,
  "famili": 5429,
  "properly</w>": 5430,
  "Eddi": 5431,
  "8.</w>": 5432,
  "extend</w>": 5433,
  "style.</w>": 5434,
  "job.</w>": 5435,
  "old.</w>": 5436,
  "17</w>": 5437,
  "unfortun": 5438,
  "ranked</w>": 5439,
  "awk": 5440,
  "ED</w>": 5441,
  "Ortiz</w>": 5442,
  "flat</w>": 5443,
  "ens": 5444,
  "ures</w>": 5445,
  "Rui": 5446,
  "Mexican</w>": 5447,
  "ESP": 5448,
  "scenari": 5449,
  "gain</w>": 5450,
  "ghee</w>": 5451,
  "gro": 5452,
  "punched</w>": 5453,
  "corner,</w>": 5454,
  "posture</w>": 5455,
  "save</w>": 5456,
  "uel</w>": 5457,
  "mer</w>": 5458,
  "shorter</w>": 5459,
  "numbers</w>": 5460,
  "upon</w>": 5461,
  "me?</w>": 5462,
  "situations</w>": 5463,
  "wis</w>": 5464,
  "Black</w>": 5465,
  "Marc": 5466,
  "glad</w>": 5467,
  "Sa": 5468,
  "mir": 5469,
  "picture</w>": 5470,
  "grow</w>": 5471,
  "ira</w>": 5472,
  "Ne": 5473,
  "sudden</w>": 5474,
  "disciplin": 5475,
  "best.</w>": 5476,
  "shin</w>": 5477,
  "bund": 5478,
  "Klitschko</w>": 5479,
  "edge</w>": 5480,
  "present</w>": 5481,
  "Hatt": 5482,
  "-per-": 5483,
  "TH</w>": 5484,
  "Beau": 5485,
  "knocking</w>": 5486,
  "LO": 5487,
  "sed.</w>": 5488,
  "shif": 5489,
  "nex": 5490,
  "off,</w>": 5491,
  "guy,</w>": 5492,
  "was.</w>": 5493,
  "Charlo</w>": 5494,
  "ences</w>": 5495,
  "cutting</w>": 5496,
  "AB": 5497,
  "Once</w>": 5498,
  "W</w>": 5499,
  "Landing</w>": 5500,
  "relax": 5501,
  "gi</w>": 5502,
  "Deontay</w>": 5503,
  "elev": 5504,
  "that'll</w>": 5505,
  "sto": 5506,
  "ada</w>": 5507,
  "locks</w>": 5508,
  "expecting</w>": 5509,
  "suff": 5510,
  "wife</w>": 5511,
  "earned</w>": 5512,
  "slowly</w>": 5513,
  "lished</w>": 5514,
  "smooth</w>": 5515,
  "enough.</w>": 5516,
  "serv": 5517,
  "White</w>": 5518,
  "and,</w>": 5519,
  "dude.</w>": 5520,
  "McGreg": 5521,
  "reverse</w>": 5522,
  "dar": 5523,
  "10.</w>": 5524,
  "bat</w>": 5525,
  "wrestler</w>": 5526,
  "year-old</w>": 5527,
  "Grac": 5528,
  "July</w>": 5529,
  "times,</w>": 5530,
  "perform</w>": 5531,
  "ose</w>": 5532,
  "growing</w>": 5533,
  "thai</w>": 5534,
  "ality</w>": 5535,
  "Beautiful</w>": 5536,
  "contest</w>": 5537,
  "By</w>": 5538,
  "show.</w>": 5539,
  "rup": 5540,
  "s:</w>": 5541,
  "ja": 5542,
  "played</w>": 5543,
  "cks</w>": 5544,
  "ultimat": 5545,
  "10th</w>": 5546,
  "Gam": 5547,
  "provide</w>": 5548,
  "ac</w>": 5549,
  "tun": 5550,
  "cri": 5551,
  "commit": 5552,
  "oo</w>": 5553,
  "spoke</w>": 5554,
  "allowing</w>": 5555,
  "purpose</w>": 5556,
  "lden</w>": 5557,
  "den</w>": 5558,
  "judo</w>": 5559,
  "Lond": 5560,
  "popular</w>": 5561,
  "alth</w>": 5562,
  "cage</w>": 5563,
  "close.</w>": 5564,
  "goals</w>": 5565,
  "Nice.</w>": 5566,
  "stupid</w>": 5567,
  "Ow": 5568,
  "book": 5569,
  "January</w>": 5570,
  "ations,</w>": 5571,
  "low": 5572,
  "Lar": 5573,
  "door</w>": 5574,
  "mike</w>": 5575,
  "band</w>": 5576,
  "realistic</w>": 5577,
  "lying</w>": 5578,
  "rain": 5579,
  "colle": 5580,
  "ereas</w>": 5581,
  "Lit": 5582,
  "worse</w>": 5583,
  "blow</w>": 5584,
  "pay-per-": 5585,
  "exha": 5586,
  "weekend</w>": 5587,
  "lay": 5588,
  "shot,</w>": 5589,
  "Dou": 5590,
  "Alexander</w>": 5591,
  "patter": 5592,
  "alize</w>": 5593,
  "pivo": 5594,
  "emb": 5595,
  "forward,</w>": 5596,
  "influ": 5597,
  "conf": 5598,
  "Was</w>": 5599,
  "tactics</w>": 5600,
  "stian</w>": 5601,
  "diet</w>": 5602,
  "burn</w>": 5603,
  "achiev": 5604,
  "198": 5605,
  "extension</w>": 5606,
  "himself.</w>": 5607,
  "says,</w>": 5608,
  "Victor</w>": 5609,
  "track</w>": 5610,
  "YOU": 5611,
  "sick</w>": 5612,
  "rock</w>": 5613,
  "Here's</w>": 5614,
  "lement</w>": 5615,
  "opportunities</w>": 5616,
  "zy</w>": 5617,
  "Ricky</w>": 5618,
  "eign</w>": 5619,
  "pressu": 5620,
  "tions.</w>": 5621,
  "afra": 5622,
  "disa": 5623,
  "Give</w>": 5624,
  "canv": 5625,
  "Will</w>": 5626,
  "enjoyed</w>": 5627,
  "does.</w>": 5628,
  "Philly</w>": 5629,
  "counters</w>": 5630,
  "practicing</w>": 5631,
  "bet</w>": 5632,
  "female</w>": 5633,
  "backing</w>": 5634,
  "tribut": 5635,
  "mechan": 5636,
  "’t</w>": 5637,
  "fell": 5638,
  "ran</w>": 5639,
  "pressure.</w>": 5640,
  "defense.</w>": 5641,
  "responsi": 5642,
  "kinds</w>": 5643,
  "tric</w>": 5644,
  "Pol": 5645,
  "UN": 5646,
  "Fitness</w>": 5647,
  "connect</w>": 5648,
  "famil": 5649,
  "stepped</w>": 5650,
  "reig": 5651,
  "Marquez</w>": 5652,
  "ernan": 5653,
  "paying</w>": 5654,
  "suppor": 5655,
  "stays</w>": 5656,
  "Golov": 5657,
  "Muhammad</w>": 5658,
  "man's</w>": 5659,
  "evol": 5660,
  "spent</w>": 5661,
  "gui": 5662,
  "spin</w>": 5663,
  "maximum</w>": 5664,
  "mouth": 5665,
  "occa": 5666,
  "Kevin</w>": 5667,
  "Vegas</w>": 5668,
  "Jose": 5669,
  "perfectly</w>": 5670,
  "coming.</w>": 5671,
  "brand</w>": 5672,
  "–</w>": 5673,
  "s]</w>": 5674,
  "Adam": 5675,
  "DOW": 5676,
  "road</w>": 5677,
  "slide</w>": 5678,
  "Tar": 5679,
  "Luke</w>": 5680,
  "ck.</w>": 5681,
  "actions</w>": 5682,
  "weak</w>": 5683,
  "Okay?</w>": 5684,
  "fit": 5685,
  "decent</w>": 5686,
  "combos</w>": 5687,
  "honest.</w>": 5688,
  "square</w>": 5689,
  "trap</w>": 5690,
  "Alex</w>": 5691,
  "BO": 5692,
  "Me": 5693,
  "muay</w>": 5694,
  "Santa</w>": 5695,
  "boy": 5696,
  "ri</w>": 5697,
  "Cra": 5698,
  "movement.</w>": 5699,
  "discus": 5700,
  "Mora": 5701,
  "Ped": 5702,
  "Tex": 5703,
  "itch": 5704,
  "hanging</w>": 5705,
  "stoppage</w>": 5706,
  "pushed</w>": 5707,
  "Shi": 5708,
  "Max</w>": 5709,
  "switching</w>": 5710,
  "opponent,</w>": 5711,
  "resistance</w>": 5712,
  "holds</w>": 5713,
  "legs.</w>": 5714,
  "sal": 5715,
  "dead</w>": 5716,
  "plea": 5717,
  "Lewis</w>": 5718,
  "listen,</w>": 5719,
  "ga</w>": 5720,
  "varez</w>": 5721,
  "quo": 5722,
  "Donaire</w>": 5723,
  "Knock": 5724,
  "ancing</w>": 5725,
  "anything.</w>": 5726,
  "dig</w>": 5727,
  "research</w>": 5728,
  "HE'S</w>": 5729,
  "21</w>": 5730,
  "respec": 5731,
  "perhaps</w>": 5732,
  "0,</w>": 5733,
  "bloody</w>": 5734,
  "ica</w>": 5735,
  "Hall</w>": 5736,
  "power,</w>": 5737,
  "Pat": 5738,
  "adapt": 5739,
  "AS</w>": 5740,
  "clears</w>": 5741,
  "injured</w>": 5742,
  "effectively</w>": 5743,
  "tool</w>": 5744,
  "can.</w>": 5745,
  "Conor</w>": 5746,
  "Sarah</w>": 5747,
  "cial</w>": 5748,
  "screen</w>": 5749,
  "bat": 5750,
  "Ange": 5751,
  "degree</w>": 5752,
  "ity,</w>": 5753,
  "hardest</w>": 5754,
  "Oscar</w>": 5755,
  "co-": 5756,
  "freaking</w>": 5757,
  "shell</w>": 5758,
  "ad.</w>": 5759,
  "modern</w>": 5760,
  "logical</w>": 5761,
  "bang": 5762,
  "ekwondo</w>": 5763,
  "collar</w>": 5764,
  "Those</w>": 5765,
  "iling</w>": 5766,
  "stopping</w>": 5767,
  "to-": 5768,
  "day's</w>": 5769,
  "ung</w>": 5770,
  "Bob</w>": 5771,
  "sees</w>": 5772,
  "cy": 5773,
  "ps,</w>": 5774,
  "managed</w>": 5775,
  "submissions</w>": 5776,
  "focusing</w>": 5777,
  "alist</w>": 5778,
  "What": 5779,
  "IS": 5780,
  "swinging</w>": 5781,
  "lbs.</w>": 5782,
  "IQ": 5783,
  "question": 5784,
  "benefits</w>": 5785,
  "path</w>": 5786,
  "daugh": 5787,
  "ness.</w>": 5788,
  "current</w>": 5789,
  "Steve</w>": 5790,
  "bought</w>": 5791,
  "react</w>": 5792,
  "refer": 5793,
  "equi": 5794,
  "lights</w>": 5795,
  "grips</w>": 5796,
  "recent</w>": 5797,
  "Obviously,</w>": 5798,
  "end,</w>": 5799,
  "afraid</w>": 5800,
  "itch</w>": 5801,
  "concentr": 5802,
  "fication</w>": 5803,
  "Secon": 5804,
  "Where</w>": 5805,
  "free": 5806,
  "found": 5807,
  "ges.</w>": 5808,
  "los": 5809,
  "fix</w>": 5810,
  "vate</w>": 5811,
  "lives</w>": 5812,
  "He'll</w>": 5813,
  "eri": 5814,
  "endurance</w>": 5815,
  "met": 5816,
  "upset</w>": 5817,
  "ka</w>": 5818,
  "Ward": 5819,
  "ban": 5820,
  "viron": 5821,
  "prep": 5822,
  "dru": 5823,
  "PP": 5824,
  "Bur": 5825,
  "destro": 5826,
  "Still</w>": 5827,
  "hey,</w>": 5828,
  "what,</w>": 5829,
  "antam": 5830,
  "options</w>": 5831,
  "price</w>": 5832,
  "wrap</w>": 5833,
  "event.</w>": 5834,
  "22</w>": 5835,
  "halfway</w>": 5836,
  "\",</w>": 5837,
  "danger</w>": 5838,
  "legend": 5839,
  "rac": 5840,
  "punish": 5841,
  "environ": 5842,
  "er?</w>": 5843,
  "training,</w>": 5844,
  "LEF": 5845,
  "heads</w>": 5846,
  "Well</w>": 5847,
  "od": 5848,
  "erate</w>": 5849,
  "Three</w>": 5850,
  "Christ": 5851,
  "High</w>": 5852,
  "loved</w>": 5853,
  "Bel": 5854,
  "childr": 5855,
  "kets</w>": 5856,
  "Brand": 5857,
  "fram": 5858,
  "ante</w>": 5859,
  "different.</w>": 5860,
  "h?</w>": 5861,
  "foreign</w>": 5862,
  "enk": 5863,
  "everyone's</w>": 5864,
  "ches.</w>": 5865,
  "90</w>": 5866,
  "despite</w>": 5867,
  "Sometimes</w>": 5868,
  "kicked</w>": 5869,
  "pul": 5870,
  "dollars</w>": 5871,
  "swi": 5872,
  "Our</w>": 5873,
  "defeat</w>": 5874,
  "Tri": 5875,
  "Gabriel</w>": 5876,
  "dedic": 5877,
  "mostly</w>": 5878,
  "mount</w>": 5879,
  "ard.</w>": 5880,
  "Roberto</w>": 5881,
  "dope</w>": 5882,
  "pha": 5883,
  "rough</w>": 5884,
  "point,</w>": 5885,
  "Exact": 5886,
  "Japan": 5887,
  "fighters,</w>": 5888,
  "significant</w>": 5889,
  "treat</w>": 5890,
  "23</w>": 5891,
  "prepare</w>": 5892,
  "Hag": 5893,
  "transition</w>": 5894,
  "named</w>": 5895,
  "tto</w>": 5896,
  "this?</w>": 5897,
  "24": 5898,
  "Jabs</w>": 5899,
  "people's</w>": 5900,
  "ateg": 5901,
  "terrible</w>": 5902,
  "Intern": 5903,
  "ground.</w>": 5904,
  "ultimately</w>": 5905,
  "Ev": 5906,
  "cus": 5907,
  "may": 5908,
  "Carlos</w>": 5909,
  "op.</w>": 5910,
  "dir": 5911,
  "balls</w>": 5912,
  "tight": 5913,
  "Williams</w>": 5914,
  "enz": 5915,
  "Diego</w>": 5916,
  "UR": 5917,
  "team.</w>": 5918,
  "watch": 5919,
  "neutr": 5920,
  "THAT</w>": 5921,
  "secre": 5922,
  "instructions</w>": 5923,
  "H,</w>": 5924,
  "Stevenson</w>": 5925,
  "Haney</w>": 5926,
  "four.</w>": 5927,
  "acks</w>": 5928,
  "writ": 5929,
  "sian</w>": 5930,
  "heavier</w>": 5931,
  "ringside</w>": 5932,
  "dynam": 5933,
  "sixth</w>": 5934,
  "Xander</w>": 5935,
  "mach": 5936,
  "frame</w>": 5937,
  "falling</w>": 5938,
  "Be</w>": 5939,
  "pressing</w>": 5940,
  "ley.</w>": 5941,
  "email</w>": 5942,
  "25": 5943,
  "Sergi": 5944,
  "absor": 5945,
  "Squ": 5946,
  "vul": 5947,
  "-ups</w>": 5948,
  "U</w>": 5949,
  "Heavyweight</w>": 5950,
  "brain": 5951,
  "speed.</w>": 5952,
  "shake</w>": 5953,
  "stances</w>": 5954,
  "les": 5955,
  "necessary</w>": 5956,
  "luck</w>": 5957,
  "thousand</w>": 5958,
  "dram": 5959,
  "vity</w>": 5960,
  "forced</w>": 5961,
  "fic</w>": 5962,
  "SE": 5963,
  "second.</w>": 5964,
  "Parker</w>": 5965,
  "lap": 5966,
  "touching</w>": 5967,
  "shirt</w>": 5968,
  "okay.</w>": 5969,
  "29": 5970,
  "conversation</w>": 5971,
  "rying</w>": 5972,
  "poun": 5973,
  "gentlemen</w>": 5974,
  "directly</w>": 5975,
  "essentially</w>": 5976,
  "cop": 5977,
  "ry.</w>": 5978,
  "categ": 5979,
  "opping</w>": 5980,
  "anticip": 5981,
  "determin": 5982,
  "controlled</w>": 5983,
  "experience.</w>": 5984,
  "perspective</w>": 5985,
  "variations</w>": 5986,
  "takedowns</w>": 5987,
  "speed,</w>": 5988,
  "performance.</w>": 5989,
  "ass": 5990,
  "mm</w>": 5991,
  "career,</w>": 5992,
  "purple</w>": 5993,
  "chin.</w>": 5994,
  "din": 5995,
  "oni": 5996,
  "shuff": 5997,
  "question.</w>": 5998,
  "interview": 5999,
  "Jes": 6000,
  "throw": 6001,
  "sweet</w>": 6002,
  "gym,</w>": 6003,
  "Tea": 6004,
  "Mosle": 6005,
  "Andrew</w>": 6006,
  "gas.</w>": 6007,
  "nment</w>": 6008,
  "left,</w>": 6009,
  "law": 6010,
  "ked.</w>": 6011,
  "five.</w>": 6012,
  "angle.</w>": 6013,
  "match,</w>": 6014,
  "endous</w>": 6015,
  "dumb": 6016,
  "Fer": 6017,
  "surprise</w>": 6018,
  "throat": 6019,
  "Coast</w>": 6020,
  "tan": 6021,
  "died</w>": 6022,
  "mic</w>": 6023,
  "ideas</w>": 6024,
  "transfer</w>": 6025,
  "shooting</w>": 6026,
  "Bern": 6027,
  "Gal": 6028,
  "trials</w>": 6029,
  "ate,</w>": 6030,
  "exhau": 6031,
  "with.</w>": 6032,
  "alone</w>": 6033,
  "majority</w>": 6034,
  "arm.</w>": 6035,
  "stairs.</w>": 6036,
  "unbelievable</w>": 6037,
  "gust</w>": 6038,
  "available</w>": 6039,
  "A,</w>": 6040,
  "closing</w>": 6041,
  "Med": 6042,
  "Gonzalez</w>": 6043,
  "amb": 6044,
  "anytime</w>": 6045,
  "vulner": 6046,
  "code</w>": 6047,
  "stric": 6048,
  "dead": 6049,
  "now?</w>": 6050,
  "bell": 6051,
  "shi</w>": 6052,
  "bone</w>": 6053,
  "Silva</w>": 6054,
  "Ful": 6055,
  "predict": 6056,
  "compo": 6057,
  "promise</w>": 6058,
  "say.</w>": 6059,
  "outs.</w>": 6060,
  "bags</w>": 6061,
  "too,</w>": 6062,
  "Fury.</w>": 6063,
  "ene": 6064,
  "Smith</w>": 6065,
  "Kar": 6066,
  "Tou": 6067,
  "throat]</w>": 6068,
  "narr": 6069,
  "deep": 6070,
  "clock</w>": 6071,
  "Sam</w>": 6072,
  "27</w>": 6073,
  "yourself.</w>": 6074,
  "aggressi": 6075,
  "soft</w>": 6076,
  "here?</w>": 6077,
  "still": 6078,
  "fighting.</w>": 6079,
  "counter.</w>": 6080,
  "safe": 6081,
  "role</w>": 6082,
  "kers</w>": 6083,
  "assi": 6084,
  "healthy</w>": 6085,
  "gloves.</w>": 6086,
  "Does</w>": 6087,
  "Step</w>": 6088,
  "Ac": 6089,
  "results</w>": 6090,
  "competed</w>": 6091,
  "Sim": 6092,
  "idea": 6093,
  "mass</w>": 6094,
  "spect": 6095,
  "brown</w>": 6096,
  "hello</w>": 6097,
  "ore</w>": 6098,
  "ped</w>": 6099,
  "ence": 6100,
  "news</w>": 6101,
  "mani": 6102,
  "points.</w>": 6103,
  "knuckles</w>": 6104,
  "ter,</w>": 6105,
  "set.</w>": 6106,
  "os.</w>": 6107,
  "mom</w>": 6108,
  "lin</w>": 6109,
  "Joseph</w>": 6110,
  "Who's</w>": 6111,
  "unique</w>": 6112,
  "valu": 6113,
  "crazy.</w>": 6114,
  "ti</w>": 6115,
  "useful</w>": 6116,
  "negative</w>": 6117,
  "sters</w>": 6118,
  "pound": 6119,
  "[clears</w>": 6120,
  "i,</w>": 6121,
  "gun": 6122,
  "control.</w>": 6123,
  "joining</w>": 6124,
  "-year-old</w>": 6125,
  "Rodriguez</w>": 6126,
  "TI": 6127,
  "discipline</w>": 6128,
  "inch</w>": 6129,
  "chea": 6130,
  "TV</w>": 6131,
  "Brea": 6132,
  "King</w>": 6133,
  "chok": 6134,
  "Orthodox</w>": 6135,
  "earn</w>": 6136,
  "methods</w>": 6137,
  "TKO</w>": 6138,
  "ppy</w>": 6139,
  "gover": 6140,
  "ford</w>": 6141,
  "by": 6142,
  "place.</w>": 6143,
  "began</w>": 6144,
  "ingly</w>": 6145,
  "elite</w>": 6146,
  "remin": 6147,
  "year,</w>": 6148,
  "and.</w>": 6149,
  "attack.</w>": 6150,
  "Night</w>": 6151,
  "Phili": 6152,
  "feed": 6153,
  "Wil": 6154,
  "dium</w>": 6155,
  "condition</w>": 6156,
  "quick.</w>": 6157,
  "Grapp": 6158,
  "prevent</w>": 6159,
  "wake</w>": 6160,
  "menta": 6161,
  "knife</w>": 6162,
  "primar": 6163,
  "challenging</w>": 6164,
  "long.</w>": 6165,
  "August</w>": 6166,
  "faints</w>": 6167,
  "mic": 6168,
  "Over": 6169,
  "Leg": 6170,
  "grad": 6171,
  "insan": 6172,
  "currently</w>": 6173,
  "response</w>": 6174,
  "Little</w>": 6175,
  "UK</w>": 6176,
  "veteran</w>": 6177,
  "lon": 6178,
  "asc": 6179,
  "sat</w>": 6180,
  "International</w>": 6181,
  "thumb</w>": 6182,
  "Spence</w>": 6183,
  "zero</w>": 6184,
  "cold</w>": 6185,
  "atively</w>": 6186,
  "ROUN": 6187,
  "frequ": 6188,
  "silver</w>": 6189,
  "Man,</w>": 6190,
  "then.</w>": 6191,
  "night,</w>": 6192,
  "Sanche": 6193,
  "then,</w>": 6194,
  "Jord": 6195,
  "Warr": 6196,
  "advantage.</w>": 6197,
  "come.</w>": 6198,
  "desi": 6199,
  "beginners</w>": 6200,
  "controver": 6201,
  "fast.</w>": 6202,
  "percent</w>": 6203,
  "thousands</w>": 6204,
  "jujitsu</w>": 6205,
  "32</w>": 6206,
  "title,</w>": 6207,
  "peace</w>": 6208,
  "Absolutely.</w>": 6209,
  "claim": 6210,
  "be,</w>": 6211,
  "manag": 6212,
  "lbs</w>": 6213,
  "conference</w>": 6214,
  "ices</w>": 6215,
  "mats</w>": 6216,
  "Japanese</w>": 6217,
  "move.</w>": 6218,
  "company</w>": 6219,
  "ning,</w>": 6220,
  "ail</w>": 6221,
  "antamweight</w>": 6222,
  "consistent</w>": 6223,
  "OR</w>": 6224,
  "south</w>": 6225,
  "roll": 6226,
  "first,</w>": 6227,
  "Fighting</w>": 6228,
  "eas": 6229,
  "app</w>": 6230,
  "Fed": 6231,
  "local</w>": 6232,
  "video,</w>": 6233,
  "xi": 6234,
  "variation</w>": 6235,
  "Min": 6236,
  "Thur": 6237,
  "twist</w>": 6238,
  "added</w>": 6239,
  "Dana</w>": 6240,
  "practition": 6241,
  "Ward</w>": 6242,
  "more,</w>": 6243,
  "max</w>": 6244,
  "tells</w>": 6245,
  "Hon": 6246,
  "ject</w>": 6247,
  "100%.</w>": 6248,
  "connec": 6249,
  "month": 6250,
  "Looks</w>": 6251,
  "AN</w>": 6252,
  "Dere": 6253,
  "kick.</w>": 6254,
  "example,</w>": 6255,
  "very,</w>": 6256,
  "Dubo": 6257,
  "ani</w>": 6258,
  "sir</w>": 6259,
  "ref</w>": 6260,
  "fundamentals</w>": 6261,
  "cid": 6262,
  "sen</w>": 6263,
  "Pacquiao.</w>": 6264,
  "Camp": 6265,
  "Hagg": 6266,
  "An</w>": 6267,
  "minutes.</w>": 6268,
  "k?</w>": 6269,
  "McGregor</w>": 6270,
  "ine.</w>": 6271,
  "ket": 6272,
  "sac": 6273,
  "HER": 6274,
  "0s</w>": 6275,
  "losses</w>": 6276,
  "ental</w>": 6277,
  "duct</w>": 6278,
  "offe": 6279,
  "sis</w>": 6280,
  "Col": 6281,
  "sequence</w>": 6282,
  "except</w>": 6283,
  "specifically</w>": 6284,
  "ha</w>": 6285,
  "option</w>": 6286,
  "famous</w>": 6287,
  "waist</w>": 6288,
  "Sugar</w>": 6289,
  "finishing</w>": 6290,
  "LEFT</w>": 6291,
  "pause</w>": 6292,
  "US</w>": 6293,
  "retire": 6294,
  "areas</w>": 6295,
  "Bru": 6296,
  "competitors</w>": 6297,
  "maintain": 6298,
  "zz": 6299,
  "master": 6300,
  "trainers</w>": 6301,
  "years,</w>": 6302,
  "tape</w>": 6303,
  "K.</w>": 6304,
  "limited</w>": 6305,
  "bull": 6306,
  "te,</w>": 6307,
  "fol": 6308,
  "Terence</w>": 6309,
  "Thomas</w>": 6310,
  "stability</w>": 6311,
  "Center</w>": 6312,
  "otherwise</w>": 6313,
  "hit.</w>": 6314,
  "mess</w>": 6315,
  "AJ</w>": 6316,
  "legendary</w>": 6317,
  "Judo</w>": 6318,
  "chai</w>": 6319,
  "ig</w>": 6320,
  "decl": 6321,
  "mother</w>": 6322,
  "plant</w>": 6323,
  "women's</w>": 6324,
  "America</w>": 6325,
  "eye.</w>": 6326,
  "Gl": 6327,
  "pen</w>": 6328,
  "realized</w>": 6329,
  "parts</w>": 6330,
  "repetit": 6331,
  "hurting</w>": 6332,
  "film</w>": 6333,
  "close": 6334,
  "tournaments</w>": 6335,
  "X</w>": 6336,
  "Target</w>": 6337,
  "Head</w>": 6338,
  "setup</w>": 6339,
  "grow": 6340,
  "fore": 6341,
  "feat": 6342,
  "rit": 6343,
  "choice</w>": 6344,
  "ither</w>": 6345,
  "explain": 6346,
  "private</w>": 6347,
  "really.</w>": 6348,
  "loads</w>": 6349,
  "middle.</w>": 6350,
  "li</w>": 6351,
  "Put</w>": 6352,
  "ren": 6353,
  "medit": 6354,
  "money.</w>": 6355,
  "mble</w>": 6356,
  "ure.</w>": 6357,
  "ancy</w>": 6358,
  "expert</w>": 6359,
  "langu": 6360,
  "Foreman</w>": 6361,
  "knockdown.</w>": 6362,
  "think.</w>": 6363,
  "gies</w>": 6364,
  "congratul": 6365,
  "andy</w>": 6366,
  "tonight,</w>": 6367,
  "Tal": 6368,
  "do?</w>": 6369,
  "there?</w>": 6370,
  "ora</w>": 6371,
  "death</w>": 6372,
  "Two.</w>": 6373,
  "COM": 6374,
  "inde": 6375,
  "raised</w>": 6376,
  "elimin": 6377,
  "stream": 6378,
  "comman": 6379,
  "blocks</w>": 6380,
  "leng": 6381,
  "mate</w>": 6382,
  "Jose</w>": 6383,
  "devast": 6384,
  "Feli": 6385,
  "scra": 6386,
  "10,</w>": 6387,
  "weapons</w>": 6388,
  "Adv": 6389,
  "Que": 6390,
  "Pal": 6391,
  "exten": 6392,
  "release</w>": 6393,
  "ude</w>": 6394,
  "pocket</w>": 6395,
  "statement</w>": 6396,
  "opened</w>": 6397,
  "legend</w>": 6398,
  "knockouts</w>": 6399,
  "wealth</w>": 6400,
  "Mov": 6401,
  "appli": 6402,
  "hundred</w>": 6403,
  "background</w>": 6404,
  "struggling</w>": 6405,
  "rid": 6406,
  "technically</w>": 6407,
  "unified</w>": 6408,
  "rip</w>": 6409,
  "TR": 6410,
  "generate</w>": 6411,
  "THER": 6412,
  "chase</w>": 6413,
  "football</w>": 6414,
  "conv": 6415,
  "extended</w>": 6416,
  "else.</w>": 6417,
  "people,</w>": 6418,
  "calories</w>": 6419,
  "section</w>": 6420,
  "eration</w>": 6421,
  "season</w>": 6422,
  "athletic</w>": 6423,
  "Top</w>": 6424,
  "Nun": 6425,
  "Jeff": 6426,
  "follow": 6427,
  "la</w>": 6428,
  "ution</w>": 6429,
  "Dam": 6430,
  "doctor</w>": 6431,
  "before,</w>": 6432,
  "reason": 6433,
  "dance</w>": 6434,
  "ism</w>": 6435,
  "slips</w>": 6436,
  "download</w>": 6437,
  "large</w>": 6438,
  "calls</w>": 6439,
  "quit</w>": 6440,
  "regard": 6441,
  "Hoya</w>": 6442,
  "ror</w>": 6443,
  "attr": 6444,
  "Super": 6445,
  "snort": 6446,
  "snorts]</w>": 6447,
  "AG": 6448,
  "student</w>": 6449,
  "ership</w>": 6450,
  "Ul": 6451,
  "stam": 6452,
  "Coach</w>": 6453,
  "on's</w>": 6454,
  "Len": 6455,
  "[snorts]</w>": 6456,
  "ising</w>": 6457,
  "Y.</w>": 6458,
  "piec": 6459,
  "whereas</w>": 6460,
  "ty,</w>": 6461,
  "home.</w>": 6462,
  "sus": 6463,
  "dur": 6464,
  "boxer.</w>": 6465,
  "struggle</w>": 6466,
  "fast": 6467,
  "Uni": 6468,
  "Vargas</w>": 6469,
  "k's</w>": 6470,
  "card.</w>": 6471,
  "dip</w>": 6472,
  "Southpa": 6473,
  "While</w>": 6474,
  "mod": 6475,
  "escape</w>": 6476,
  "pper</w>": 6477,
  "course.</w>": 6478,
  "chill": 6479,
  "Dan</w>": 6480,
  "developed</w>": 6481,
  "like": 6482,
  "lets</w>": 6483,
  "forearm</w>": 6484,
  "Tom</w>": 6485,
  "chain</w>": 6486,
  "rotational</w>": 6487,
  "1)</w>": 6488,
  "disapp": 6489,
  "sta</w>": 6490,
  "sou": 6491,
  "wrestle</w>": 6492,
  "interview</w>": 6493,
  "roundhouse</w>": 6494,
  "testing</w>": 6495,
  "Ric": 6496,
  "zes</w>": 6497,
  "birth": 6498,
  "coffe": 6499,
  "Jack": 6500,
  "ther's</w>": 6501,
  "Ander": 6502,
  "spac": 6503,
  "ces</w>": 6504,
  "psycho": 6505,
  "appar": 6506,
  "200</w>": 6507,
  "enjoying</w>": 6508,
  "illa</w>": 6509,
  "Isa": 6510,
  "poor</w>": 6511,
  "hoping</w>": 6512,
  "purpo": 6513,
  "public</w>": 6514,
  "fingers</w>": 6515,
  "Seba": 6516,
  "Yo,</w>": 6517,
  "measu": 6518,
  "corpor": 6519,
  "hmm</w>": 6520,
  "aspect</w>": 6521,
  "140</w>": 6522,
  "commit</w>": 6523,
  "awkward</w>": 6524,
  "You'll</w>": 6525,
  "joint</w>": 6526,
  "pre-": 6527,
  "Introducing</w>": 6528,
  "tical</w>": 6529,
  "bey": 6530,
  "not,</w>": 6531,
  "brut": 6532,
  "figured</w>": 6533,
  "presi": 6534,
  "hop</w>": 6535,
  "mid-": 6536,
  "breaks</w>": 6537,
  "excuse</w>": 6538,
  "ton.</w>": 6539,
  "six.</w>": 6540,
  "Moses</w>": 6541,
  "runs</w>": 6542,
  "instructor</w>": 6543,
  "etc": 6544,
  "constant</w>": 6545,
  "sett": 6546,
  "tremendous</w>": 6547,
  "sty</w>": 6548,
  "history.</w>": 6549,
  "ami</w>": 6550,
  "covering</w>": 6551,
  "members</w>": 6552,
  "thon": 6553,
  "mix": 6554,
  ".m.</w>": 6555,
  "Fig": 6556,
  "eno</w>": 6557,
  "habits</w>": 6558,
  "g,</w>": 6559,
  "popul": 6560,
  "oh,</w>": 6561,
  "Lomachenko</w>": 6562,
  "Gary</w>": 6563,
  "Gib": 6564,
  "bad.</w>": 6565,
  "adjust</w>": 6566,
  "Eric</w>": 6567,
  "Last</w>": 6568,
  "games</w>": 6569,
  "Valdez</w>": 6570,
  "act.</w>": 6571,
  "ner,</w>": 6572,
  "contract</w>": 6573,
  "bling</w>": 6574,
  "talent</w>": 6575,
  "motivation</w>": 6576,
  "travel</w>": 6577,
  "designed</w>": 6578,
  "accurate</w>": 6579,
  "bundle</w>": 6580,
  "passed</w>": 6581,
  "hood</w>": 6582,
  "Right?</w>": 6583,
  "box.</w>": 6584,
  "1.": 6585,
  "Hay": 6586,
  "video.</w>": 6587,
  "lucky</w>": 6588,
  "pay-per-view</w>": 6589,
  "courage</w>": 6590,
  "city</w>": 6591,
  "stops</w>": 6592,
  "fire": 6593,
  "[scream": 6594,
  "backs</w>": 6595,
  "fresh</w>": 6596,
  "plays</w>": 6597,
  "Pen": 6598,
  "jiu-jitsu.</w>": 6599,
  "Pat</w>": 6600,
  "possible.</w>": 6601,
  "drag</w>": 6602,
  "shov": 6603,
  "culture</w>": 6604,
  "uncomfortable</w>": 6605,
  "trunks</w>": 6606,
  "threat</w>": 6607,
  "eting</w>": 6608,
  "tied</w>": 6609,
  "Jiu</w>": 6610,
  "concept</w>": 6611,
  "ves,</w>": 6612,
  "links</w>": 6613,
  "stayed</w>": 6614,
  "bal</w>": 6615,
  "officially</w>": 6616,
  "exclus": 6617,
  "chol": 6618,
  "OH,</w>": 6619,
  "sparring.</w>": 6620,
  "princip": 6621,
  "well-": 6622,
  "next.</w>": 6623,
  "sia</w>": 6624,
  "introduc": 6625,
  "ess,</w>": 6626,
  "bell.</w>": 6627,
  "switched</w>": 6628,
  "Jab</w>": 6629,
  "Also,</w>": 6630,
  "ted,</w>": 6631,
  "sold</w>": 6632,
  "various</w>": 6633,
  "or's</w>": 6634,
  "Corner</w>": 6635,
  "[screaming]</w>": 6636,
  "Sam": 6637,
  "Str": 6638,
  "ste</w>": 6639,
  "language</w>": 6640,
  "surg": 6641,
  "Ruiz</w>": 6642,
  "-pound</w>": 6643,
  "Oli": 6644,
  "HAN": 6645,
  "activity</w>": 6646,
  "affec": 6647,
  "conscious</w>": 6648,
  "Pedro</w>": 6649,
  "veness</w>": 6650,
  "impressed</w>": 6651,
  "pin</w>": 6652,
  "Martinez</w>": 6653,
  "Final</w>": 6654,
  "Ramos</w>": 6655,
  "altern": 6656,
  "wards.</w>": 6657,
  "fill</w>": 6658,
  "9,</w>": 6659,
  "secure</w>": 6660,
  "whoever</w>": 6661,
  "really,</w>": 6662,
  "ker.</w>": 6663,
  "repor": 6664,
  "-round</w>": 6665,
  "Steven</w>": 6666,
  "efficient</w>": 6667,
  "Stay</w>": 6668,
  "clean": 6669,
  "details</w>": 6670,
  "addre": 6671,
  "Bruce</w>": 6672,
  "wins,</w>": 6673,
  "intense</w>": 6674,
  "wrong.</w>": 6675,
  "Coun": 6676,
  "ey,</w>": 6677,
  "expect": 6678,
  "spirit": 6679,
  "lan</w>": 6680,
  "everything's</w>": 6681,
  "80</w>": 6682,
  "improving</w>": 6683,
  "club</w>": 6684,
  "guarantee</w>": 6685,
  "squats</w>": 6686,
  "Navare": 6687,
  "full": 6688,
  "complain": 6689,
  "UT</w>": 6690,
  "actu": 6691,
  "aim": 6692,
  "catches</w>": 6693,
  "illeg": 6694,
  "today's</w>": 6695,
  "Leo</w>": 6696,
  "low.</w>": 6697,
  "limit</w>": 6698,
  "barely</w>": 6699,
  "class.</w>": 6700,
  "ssion,</w>": 6701,
  "yes,</w>": 6702,
  "strateg": 6703,
  "firing</w>": 6704,
  "Stra": 6705,
  "mid</w>": 6706,
  "old,</w>": 6707,
  "eigh": 6708,
  "Laugh": 6709,
  "squeeze</w>": 6710,
  "sprin": 6711,
  "strea": 6712,
  "rob": 6713,
  "correctly</w>": 6714,
  "connected</w>": 6715,
  "comfort</w>": 6716,
  "Nev": 6717,
  "thir": 6718,
  "eu": 6719,
  "ourselves</w>": 6720,
  "ra</w>": 6721,
  "evening</w>": 6722,
  "Brandon</w>": 6723,
  "foot,</w>": 6724,
  "wid": 6725,
  "WITH</w>": 6726,
  "want.</w>": 6727,
  "classic</w>": 6728,
  "trouble.</w>": 6729,
  "stated</w>": 6730,
  "Arena</w>": 6731,
  "feet,</w>": 6732,
  "partners</w>": 6733,
  "aim</w>": 6734,
  "factor</w>": 6735,
  "meaning</w>": 6736,
  "eak</w>": 6737,
  "bag.</w>": 6738,
  "sale</w>": 6739,
  "NOW": 6740,
  "percent": 6741,
  "oci": 6742,
  "Ba": 6743,
  "FI": 6744,
  "rep</w>": 6745,
  "capable</w>": 6746,
  "obvious</w>": 6747,
  "yo": 6748,
  "atic</w>": 6749,
  "Exactly.</w>": 6750,
  "ened</w>": 6751,
  "ladi": 6752,
  "broad": 6753,
  "fash": 6754,
  "competitor</w>": 6755,
  "sweat</w>": 6756,
  "basics</w>": 6757,
  "lou": 6758,
  "anti": 6759,
  "hair</w>": 6760,
  "problem.</w>": 6761,
  "lines</w>": 6762,
  "ic,</w>": 6763,
  "Golovkin</w>": 6764,
  "promotion</w>": 6765,
  "nutrition</w>": 6766,
  "Inter": 6767,
  "mis": 6768,
  "movie</w>": 6769,
  "rif": 6770,
  "semin": 6771,
  "Going</w>": 6772,
  "N.</w>": 6773,
  "myself.</w>": 6774,
  "legal</w>": 6775,
  "SHO": 6776,
  "Body</w>": 6777,
  "s'</w>": 6778,
  "Fu": 6779,
  "2)</w>": 6780,
  "familiar</w>": 6781,
  "Trying</w>": 6782,
  "about,</w>": 6783,
  "semi-": 6784,
  "wanna</w>": 6785,
  "fun.</w>": 6786,
  "Lea": 6787,
  "um.</w>": 6788,
  "Flor": 6789,
  "Owen</w>": 6790,
  "eness</w>": 6791,
  "internet</w>": 6792,
  "grew</w>": 6793,
  "Marv": 6794,
  "forms</w>": 6795,
  "WE": 6796,
  "35</w>": 6797,
  "cling</w>": 6798,
  "Mr.</w>": 6799,
  "succes": 6800,
  "stiff</w>": 6801,
  "win,</w>": 6802,
  "three-": 6803,
  "developing</w>": 6804,
  "improv": 6805,
  "reaching</w>": 6806,
  "quicker</w>": 6807,
  "ry": 6808,
  "boots</w>": 6809,
  "Sal": 6810,
  "Touch</w>": 6811,
  "City</w>": 6812,
  "ushing</w>": 6813,
  "development</w>": 6814,
  "phen": 6815,
  "penal": 6816,
  "Gracie</w>": 6817,
  "forcing</w>": 6818,
  "versity</w>": 6819,
  "strong.</w>": 6820,
  "sugge": 6821,
  "land.</w>": 6822,
  "out?</w>": 6823,
  "HAND</w>": 6824,
  "acted</w>": 6825,
  "jumps</w>": 6826,
  "Sta": 6827,
  "mitted</w>": 6828,
  "Ál": 6829,
  "Stop.</w>": 6830,
  "downstairs</w>": 6831,
  "ar,</w>": 6832,
  "beyond</w>": 6833,
  "poli": 6834,
  "elec": 6835,
  "talented</w>": 6836,
  "smash</w>": 6837,
  "cool.</w>": 6838,
  "walks</w>": 6839,
  "tee": 6840,
  "asse": 6841,
  "Chambers</w>": 6842,
  "wing</w>": 6843,
  "rush</w>": 6844,
  "respect": 6845,
  "stars</w>": 6846,
  "palm</w>": 6847,
  "unable</w>": 6848,
  "acts</w>": 6849,
  "Sky</w>": 6850,
  "Liam</w>": 6851,
  "seventh</w>": 6852,
  "Figar": 6853,
  "accuracy</w>": 6854,
  "energ": 6855,
  "Tra": 6856,
  "direct</w>": 6857,
  "matchup</w>": 6858,
  "sanc": 6859,
  "Rou": 6860,
  "quote</w>": 6861,
  "Navar": 6862,
  "The": 6863,
  "It": 6864,
  "auth": 6865,
  "already.</w>": 6866,
  "bit": 6867,
  "advantages</w>": 6868,
  "reduc": 6869,
  "regardless</w>": 6870,
  "gate</w>": 6871,
  "Roach</w>": 6872,
  "separate</w>": 6873,
  "dal": 6874,
  "[Laugh": 6875,
  "Time</w>": 6876,
  "drops</w>": 6877,
  "finit": 6878,
  "confir": 6879,
  "Sorr": 6880,
  "rele": 6881,
  "Golden</w>": 6882,
  "Nik": 6883,
  "loop": 6884,
  "vit": 6885,
  "alig": 6886,
  "talks</w>": 6887,
  "Roy</w>": 6888,
  "Show": 6889,
  "mize</w>": 6890,
  "aron</w>": 6891,
  "somebody's</w>": 6892,
  "[Laughter]</w>": 6893,
  "range,</w>": 6894,
  "Ki": 6895,
  "28": 6896,
  "ases</w>": 6897,
  "ta</w>": 6898,
  "along": 6899,
  "Anton": 6900,
  "offer</w>": 6901,
  "distr": 6902,
  "kg</w>": 6903,
  "scary</w>": 6904,
  "green</w>": 6905,
  "movement,</w>": 6906,
  "ID": 6907,
  "Has</w>": 6908,
  "answers</w>": 6909,
  "bench</w>": 6910,
  "Cotto</w>": 6911,
  "deliver</w>": 6912,
  "equip": 6913,
  "ade": 6914,
  "achieve</w>": 6915,
  "pure</w>": 6916,
  "engage</w>": 6917,
  "tend": 6918,
  "Chu": 6919,
  "Will": 6920,
  "books</w>": 6921,
  "Pier": 6922,
  "chasing</w>": 6923,
  "rounded</w>": 6924,
  "warm-up</w>": 6925,
  "according</w>": 6926,
  "Mexic": 6927,
  "wind</w>": 6928,
  "kes.</w>": 6929,
  "forever</w>": 6930,
  "Tor": 6931,
  "sanchai</w>": 6932,
  "Stri": 6933,
  "steady</w>": 6934,
  "rolled</w>": 6935,
  "prefer</w>": 6936,
  "flash": 6937,
  "inspi": 6938,
  "als,</w>": 6939,
  "rolls</w>": 6940,
  "Champions</w>": 6941,
  "environment</w>": 6942,
  "erto</w>": 6943,
  "individual</w>": 6944,
  "her.</w>": 6945,
  "ated,</w>": 6946,
  "Cur": 6947,
  "ridicul": 6948,
  "afterwards</w>": 6949,
  "leverage</w>": 6950,
  "Robin": 6951,
  "bantamweight</w>": 6952,
  "-for": 6953,
  "Lor": 6954,
  "devastating</w>": 6955,
  "omo": 6956,
  "bom": 6957,
  "z's</w>": 6958,
  "finish.</w>": 6959,
  "ings.</w>": 6960,
  "one": 6961,
  "Bra": 6962,
  "ang.</w>": 6963,
  "bite</w>": 6964,
  "Sean</w>": 6965,
  "challenger</w>": 6966,
  "victory.</w>": 6967,
  "Nichol": 6968,
  "Southpaw</w>": 6969,
  "incredibly</w>": 6970,
  "freest": 6971,
  "Uk": 6972,
  "continued</w>": 6973,
  "2024</w>": 6974,
  "Gav": 6975,
  "reduce</w>": 6976,
  "pulls</w>": 6977,
  "stretching</w>": 6978,
  "Thanks</w>": 6979,
  "spects</w>": 6980,
  "tire</w>": 6981,
  "Everything</w>": 6982,
  "gap</w>": 6983,
  "Tre": 6984,
  "tions,</w>": 6985,
  "fairly</w>": 6986,
  "hearing</w>": 6987,
  "slight</w>": 6988,
  "Hearns</w>": 6989,
  "Rich": 6990,
  "ment,</w>": 6991,
  "depend": 6992,
  "brother.</w>": 6993,
  "FRO": 6994,
  "cho</w>": 6995,
  "ket.</w>": 6996,
  "come": 6997,
  "bent</w>": 6998,
  "stuff,</w>": 6999,
  "minute.</w>": 7000,
  ":00</w>": 7001,
  "flip</w>": 7002,
  "cards</w>": 7003,
  "circ": 7004,
  "output</w>": 7005,
  "lighter</w>": 7006,
  "lock.</w>": 7007,
  "Looking</w>": 7008,
  "increasing</w>": 7009,
  "progress</w>": 7010,
  "expec": 7011,
  "emotional</w>": 7012,
  "accep": 7013,
  "Cl": 7014,
  "loaded</w>": 7015,
  "display</w>": 7016,
  "ride</w>": 7017,
  "Bradley</w>": 7018,
  "happened.</w>": 7019,
  "Franc": 7020,
  "Jordan</w>": 7021,
  "baby.</w>": 7022,
  "Craig</w>": 7023,
  "Cro": 7024,
  "accel": 7025,
  "technique.</w>": 7026,
  "9.</w>": 7027,
  "inspir": 7028,
  "heavyweights</w>": 7029,
  "ility</w>": 7030,
  "liked</w>": 7031,
  "clip</w>": 7032,
  "ek</w>": 7033,
  "70</w>": 7034,
  "mentality</w>": 7035,
  "blocked</w>": 7036,
  "aled</w>": 7037,
  "Mosley</w>": 7038,
  "scorecards</w>": 7039,
  "room.</w>": 7040,
  "early.</w>": 7041,
  "legra": 7042,
  "ous,</w>": 7043,
  "character</w>": 7044,
  "unk</w>": 7045,
  "polit": 7046,
  "mandat": 7047,
  "planet</w>": 7048,
  "Manchest": 7049,
  "Sebastian</w>": 7050,
  "avoi": 7051,
  "lect</w>": 7052,
  "schedu": 7053,
  "capac": 7054,
  "sor</w>": 7055,
  "imate</w>": 7056,
  "parents</w>": 7057,
  "expen": 7058,
  "ug": 7059,
  "Sanchez</w>": 7060,
  "Ko": 7061,
  "Abdu": 7062,
  "Kesh": 7063,
  "easy.</w>": 7064,
  "Ukrain": 7065,
  "vulnerable</w>": 7066,
  "HIS</w>": 7067,
  "Morales</w>": 7068,
  "include</w>": 7069,
  "FROM</w>": 7070,
  "indic": 7071,
  "thus</w>": 7072,
  "deca": 7073,
  "YOU</w>": 7074,
  "Jesus</w>": 7075,
  "grabbing</w>": 7076,
  "interim</w>": 7077,
  "Pere": 7078,
  "shall</w>": 7079,
  "skilled</w>": 7080,
  "tos</w>": 7081,
  "tes</w>": 7082,
  "opposed</w>": 7083,
  "heat</w>": 7084,
  "tuc": 7085,
  "ire": 7086,
  "matters</w>": 7087,
  "kat": 7088,
  "vill": 7089,
  "mier</w>": 7090,
  "did": 7091,
  "Hel": 7092,
  "omen": 7093,
  "Straight</w>": 7094,
  "NA</w>": 7095,
  "300</w>": 7096,
  "Four</w>": 7097,
  "States</w>": 7098,
  "Sun": 7099,
  ".com": 7100,
  "beats</w>": 7101,
  "injur": 7102,
  "Definit": 7103,
  "Is": 7104,
  "ics.</w>": 7105,
  "qua": 7106,
  "Jimmy</w>": 7107,
  "Hi": 7108,
  "drinking</w>": 7109,
  "stic</w>": 7110,
  "victori": 7111,
  "ssor</w>": 7112,
  "SA": 7113,
  "pound-for": 7114,
  "produce</w>": 7115,
  "uts.</w>": 7116,
  "replac": 7117,
  "medal</w>": 7118,
  "waste</w>": 7119,
  "ded,</w>": 7120,
  "rid</w>": 7121,
  "Hatton</w>": 7122,
  "Sch": 7123,
  "California</w>": 7124,
  "forces</w>": 7125,
  "BAC": 7126,
  "pads</w>": 7127,
  "defensively</w>": 7128,
  "balance.</w>": 7129,
  "chances</w>": 7130,
  "ero": 7131,
  "Sli": 7132,
  "occ": 7133,
  "combinations.</w>": 7134,
  "I’": 7135,
  "standard</w>": 7136,
  "mention</w>": 7137,
  "punching.</w>": 7138,
  "Tru": 7139,
  "ocky</w>": 7140,
  "growth</w>": 7141,
  "spectac": 7142,
  "coffee</w>": 7143,
  "land,</w>": 7144,
  "vez</w>": 7145,
  "Haggler</w>": 7146,
  "dirty</w>": 7147,
  "aily</w>": 7148,
  "n't.</w>": 7149,
  "Try</w>": 7150,
  "one?</w>": 7151,
  "Mal": 7152,
  "Mur": 7153,
  "eight.</w>": 7154,
  "Gibson</w>": 7155,
  "Two,</w>": 7156,
  "consistently</w>": 7157,
  "Hands</w>": 7158,
  "flur": 7159,
  "THIS</w>": 7160,
  "ago,</w>": 7161,
  "selling</w>": 7162,
  "ER.</w>": 7163,
  "ater</w>": 7164,
  "coordin": 7165,
  "product</w>": 7166,
  "hungr": 7167,
  "tools</w>": 7168,
  "IC": 7169,
  "utilize</w>": 7170,
  "leads</w>": 7171,
  "method</w>": 7172,
  "everywhere</w>": 7173,
  "Pro</w>": 7174,
  "grand": 7175,
  "wro": 7176,
  "rious</w>": 7177,
  "cali": 7178,
  "gue</w>": 7179,
  "belly</w>": 7180,
  "victories</w>": 7181,
  "Bell</w>": 7182,
  "ored</w>": 7183,
  "countering</w>": 7184,
  "either.</w>": 7185,
  "ji": 7186,
  "accept</w>": 7187,
  "P.</w>": 7188,
  "28</w>": 7189,
  "nal</w>": 7190,
  "FOR</w>": 7191,
  "quarter": 7192,
  "Jas": 7193,
  "Chisor": 7194,
  "icial</w>": 7195,
  "moving.</w>": 7196,
  "ting.</w>": 7197,
  "sh,</w>": 7198,
  "aining</w>": 7199,
  "medic": 7200,
  "soon.</w>": 7201,
  "burning</w>": 7202,
  "buddy</w>": 7203,
  "tough.</w>": 7204,
  "part.</w>": 7205,
  "backed</w>": 7206,
  "children</w>": 7207,
  "j</w>": 7208,
  "promoter</w>": 7209,
  "rememb": 7210,
  "Everybody</w>": 7211,
  "submit</w>": 7212,
  "favorit": 7213,
  "scene</w>": 7214,
  "-time</w>": 7215,
  "Hey</w>": 7216,
  "bracket</w>": 7217,
  "Men": 7218,
  "corner": 7219,
  "leg,</w>": 7220,
  "bodies</w>": 7221,
  "dynamic</w>": 7222,
  "J.</w>": 7223,
  "anned</w>": 7224,
  "Common": 7225,
  "40": 7226,
  "GE": 7227,
  "amateurs</w>": 7228,
  "over,</w>": 7229,
  "ically,</w>": 7230,
  "Although</w>": 7231,
  "killer</w>": 7232,
  "was,</w>": 7233,
  "lbs)</w>": 7234,
  "contest.</w>": 7235,
  "demonstrate</w>": 7236,
  "player</w>": 7237,
  "Derek</w>": 7238,
  "Anderson</w>": 7239,
  "Sen": 7240,
  "unfortunately</w>": 7241,
  "aggression</w>": 7242,
  "affect</w>": 7243,
  "neutral</w>": 7244,
  "knuckle</w>": 7245,
  "Shaw": 7246,
  "original</w>": 7247,
  "and0</w>": 7248,
  "leaves</w>": 7249,
  "high-": 7250,
  "hard,</w>": 7251,
  "able,</w>": 7252,
  "ignor": 7253,
  "anymore.</w>": 7254,
  "x,</w>": 7255,
  "game,</w>": 7256,
  "program": 7257,
  "where.</w>": 7258,
  "aded</w>": 7259,
  "collec": 7260,
  "lived</w>": 7261,
  "outside.</w>": 7262,
  "ultimate</w>": 7263,
  "logi": 7264,
  "true.</w>": 7265,
  "inside,</w>": 7266,
  "197": 7267,
  "approa": 7268,
  "data</w>": 7269,
  "replay</w>": 7270,
  "Tech": 7271,
  "BE": 7272,
  "CH</w>": 7273,
  "fying</w>": 7274,
  "Johnson</w>": 7275,
  "rub": 7276,
  "bike</w>": 7277,
  "connection</w>": 7278,
  "jabbing</w>": 7279,
  "Can't</w>": 7280,
  "relatively</w>": 7281,
  "mber": 7282,
  "hi</w>": 7283,
  "bit,</w>": 7284,
  "athle": 7285,
  "fine.</w>": 7286,
  "whel": 7287,
  "repeat</w>": 7288,
  "settle</w>": 7289,
  "nah</w>": 7290,
  "graph": 7291,
  "percentage</w>": 7292,
  "contend": 7293,
  "Queens": 7294,
  "simul": 7295,
  "plan.</w>": 7296,
  "consu": 7297,
  "26</w>": 7298,
  "hit": 7299,
  "whatever.</w>": 7300,
  "ban</w>": 7301,
  "pros</w>": 7302,
  "snapp": 7303,
  "roo": 7304,
  "secret</w>": 7305,
  "IQ</w>": 7306,
  "wit": 7307,
  "Square</w>": 7308,
  "scram": 7309,
  "exchan": 7310,
  "up?</w>": 7311,
  "obli": 7312,
  "sucks</w>": 7313,
  "bucks</w>": 7314,
  "watch.</w>": 7315,
  "docu": 7316,
  "Sund": 7317,
  "Migu": 7318,
  "Hold</w>": 7319,
  "Brown</w>": 7320,
  "right-": 7321,
  "DOWN</w>": 7322,
  "ary.</w>": 7323,
  "less.</w>": 7324,
  "Second</w>": 7325,
  "beauti": 7326,
  "ez,</w>": 7327,
  "life,</w>": 7328,
  "associ": 7329,
  "da": 7330,
  "bo</w>": 7331,
  "nothing.</w>": 7332,
  "push-ups</w>": 7333,
  "Fraz": 7334,
  "Clar": 7335,
  "illy</w>": 7336,
  "Louis</w>": 7337,
  "boring</w>": 7338,
  "suit</w>": 7339,
  "far,</w>": 7340,
  "exi": 7341,
  "tic</w>": 7342,
  "covered</w>": 7343,
  "mping</w>": 7344,
  "tel</w>": 7345,
  "four,</w>": 7346,
  "creates</w>": 7347,
  "area": 7348,
  "whip</w>": 7349,
  "blu": 7350,
  "ington</w>": 7351,
  "Lam": 7352,
  "El": 7353,
  "execute</w>": 7354,
  "Same</w>": 7355,
  "nov": 7356,
  "uppercut,</w>": 7357,
  "iser": 7358,
  "Comm": 7359,
  "MA": 7360,
  "ne</w>": 7361,
  "Ass": 7362,
  "eighth</w>": 7363,
  "cup</w>": 7364,
  "week,</w>": 7365,
  "identi": 7366,
  "Bl": 7367,
  "wob": 7368,
  "prime</w>": 7369,
  "JF</w>": 7370,
  "Sy": 7371,
  "element</w>": 7372,
  "fucking</w>": 7373,
  "evid": 7374,
  "San</w>": 7375,
  "Remember</w>": 7376,
  "Team</w>": 7377,
  "legit</w>": 7378,
  "brothers</w>": 7379,
  "ry,</w>": 7380,
  "Double</w>": 7381,
  "tactic</w>": 7382,
  "girl": 7383,
  "style,</w>": 7384,
  "Sci": 7385,
  "received</w>": 7386,
  "Holy": 7387,
  "forgot</w>": 7388,
  "shorts</w>": 7389,
  "huh?</w>": 7390,
  "messages</w>": 7391,
  "Olympics</w>": 7392,
  "Ver": 7393,
  "Ade": 7394,
  "Ka": 7395,
  "\"Hey,</w>": 7396,
  "CON": 7397,
  "3)</w>": 7398,
  "something,</w>": 7399,
  "coach": 7400,
  "have.</w>": 7401,
  "Hen": 7402,
  "trip</w>": 7403,
  "chec": 7404,
  "meeting</w>": 7405,
  "ESPN</w>": 7406,
  "look.</w>": 7407,
  "Promo": 7408,
  "dy.</w>": 7409,
  "Puerto</w>": 7410,
  "PJ</w>": 7411,
  "trains</w>": 7412,
  "lazy</w>": 7413,
  "ents.</w>": 7414,
  "nice.</w>": 7415,
  "warrior</w>": 7416,
  "lds</w>": 7417,
  "Ran": 7418,
  "kilo": 7419,
  "bey</w>": 7420,
  "start.</w>": 7421,
  "hands,</w>": 7422,
  "sparred</w>": 7423,
  "defense,</w>": 7424,
  "ku": 7425,
  "mes</w>": 7426,
  "argue</w>": 7427,
  "skin</w>": 7428,
  "qualif": 7429,
  "boom,</w>": 7430,
  "judge": 7431,
  "hurts</w>": 7432,
  "inti": 7433,
  "slick</w>": 7434,
  "team": 7435,
  "monster</w>": 7436,
  "wrote</w>": 7437,
  "profi": 7438,
  "camp.</w>": 7439,
  "aker</w>": 7440,
  "su</w>": 7441,
  "More</w>": 7442,
  "Welcome</w>": 7443,
  "greater</w>": 7444,
  "miles</w>": 7445,
  "much,</w>": 7446,
  "around,</w>": 7447,
  "stomach</w>": 7448,
  "mobility</w>": 7449,
  "butter": 7450,
  "we'd</w>": 7451,
  "legit": 7452,
  "Polar": 7453,
  "ernande": 7454,
  "partner": 7455,
  "lesson</w>": 7456,
  "cost</w>": 7457,
  "stop.</w>": 7458,
  "secur": 7459,
  "tune</w>": 7460,
  "phenomen": 7461,
  "dia</w>": 7462,
  "band": 7463,
  "stun": 7464,
  "genu": 7465,
  "Please</w>": 7466,
  "puncher.</w>": 7467,
  "sticking</w>": 7468,
  "trim": 7469,
  "ack.</w>": 7470,
  "watching.</w>": 7471,
  "away,</w>": 7472,
  "i'd</w>": 7473,
  "him?</w>": 7474,
  "on?</w>": 7475,
  "like.</w>": 7476,
  "Taekwondo</w>": 7477,
  "Any</w>": 7478,
  "ox": 7479,
  "Could</w>": 7480,
  "anxi": 7481,
  "decisions</w>": 7482,
  "well": 7483,
  "bers</w>": 7484,
  "underdo": 7485,
  "Brazil</w>": 7486,
  "threat": 7487,
  "Which</w>": 7488,
  "gym": 7489,
  "explosi": 7490,
  "ement.</w>": 7491,
  "guards</w>": 7492,
  "ov</w>": 7493,
  "stim": 7494,
  "disappo": 7495,
  "structure</w>": 7496,
  "finan": 7497,
  "race</w>": 7498,
  "Next</w>": 7499,
  "smile</w>": 7500,
  "society</w>": 7501,
  "LE</w>": 7502,
  "ston</w>": 7503,
  "knee.</w>": 7504,
  "dad": 7505,
  "stone</w>": 7506,
  "Japan</w>": 7507,
  "ji</w>": 7508,
  "doing,</w>": 7509,
  "10-": 7510,
  "atta": 7511,
  "wondering</w>": 7512,
  "somehow</w>": 7513,
  "oop</w>": 7514,
  "popping</w>": 7515,
  "aci": 7516,
  "elle</w>": 7517,
  "bout.</w>": 7518,
  "azine</w>": 7519,
  "dom": 7520,
  "flexibility</w>": 7521,
  "List</w>": 7522,
  "birthday</w>": 7523,
  "amazing.</w>": 7524,
  "incorpor": 7525,
  "At": 7526,
  "ebook</w>": 7527,
  "135</w>": 7528,
  "controversi": 7529,
  "Thail": 7530,
  "Chin": 7531,
  "sday</w>": 7532,
  "pound-for-pound</w>": 7533,
  "w.</w>": 7534,
  "days.</w>": 7535,
  "sca": 7536,
  "frustrated</w>": 7537,
  "high.</w>": 7538,
  "tested</w>": 7539,
  "Robert</w>": 7540,
  "ura</w>": 7541,
  "prize</w>": 7542,
  "ables</w>": 7543,
  "BI": 7544,
  "ideal</w>": 7545,
  "Rhyth": 7546,
  "shoes</w>": 7547,
  "views</w>": 7548,
  "Hun": 7549,
  "Bob": 7550,
  "gel</w>": 7551,
  "vacant</w>": 7552,
  "Doesn't</w>": 7553,
  "s.\"</w>": 7554,
  "review</w>": 7555,
  "party</w>": 7556,
  "ways.</w>": 7557,
  "yp": 7558,
  "Mer": 7559,
  "Ramire": 7560,
  "wherever</w>": 7561,
  "saf": 7562,
  "straight": 7563,
  "Would</w>": 7564,
  "deserve</w>": 7565,
  "Flori": 7566,
  "daughter</w>": 7567,
  "Cale": 7568,
  "okay?</w>": 7569,
  "Navarete</w>": 7570,
  "of.</w>": 7571,
  "alized</w>": 7572,
  "fatigue</w>": 7573,
  "related</w>": 7574,
  "overwhel": 7575,
  "cut.</w>": 7576,
  "habit</w>": 7577,
  "daily</w>": 7578,
  "anyway.</w>": 7579,
  "fact,</w>": 7580,
  "ish</w>": 7581,
  "dist": 7582,
  "deeper</w>": 7583,
  "yours</w>": 7584,
  "principles</w>": 7585,
  "27": 7586,
  "Ray": 7587,
  "dark</w>": 7588,
  "defenses</w>": 7589,
  "opens</w>": 7590,
  "rout": 7591,
  "positioning</w>": 7592,
  "caused</w>": 7593,
  "regi": 7594,
  "vers</w>": 7595,
  "Cre": 7596,
  "accoun": 7597,
  "fired</w>": 7598,
  "Lev": 7599,
  "Work</w>": 7600,
  "MA</w>": 7601,
  "'s,</w>": 7602,
  "remaining</w>": 7603,
  "capit": 7604,
  "inches</w>": 7605,
  "okay,</w>": 7606,
  "CA": 7607,
  "Whitaker</w>": 7608,
  "Miguel</w>": 7609,
  "where's</w>": 7610,
  "cross": 7611,
  "DE": 7612,
  "body": 7613,
  "impossible</w>": 7614,
  "apo": 7615,
  "G.</w>": 7616,
  "shoc": 7617,
  "Shar": 7618,
  "gari": 7619,
  "president</w>": 7620,
  "exposed</w>": 7621,
  "es?</w>": 7622,
  "rank</w>": 7623,
  "dominate</w>": 7624,
  "elds</w>": 7625,
  "Ky": 7626,
  "Nat": 7627,
  "Gabby</w>": 7628,
  "sharing</w>": 7629,
  "equipment</w>": 7630,
  "stable</w>": 7631,
  "ease</w>": 7632,
  "text</w>": 7633,
  "division": 7634,
  "Stop</w>": 7635,
  "Dylan</w>": 7636,
  "ches,</w>": 7637,
  "bouncing</w>": 7638,
  "same.</w>": 7639,
  "touched</w>": 7640,
  "Also</w>": 7641,
  "posted</w>": 7642,
  "dominated</w>": 7643,
  "Rhythm</w>": 7644,
  "tear</w>": 7645,
  "Mario</w>": 7646,
  "Prime</w>": 7647,
  "Junior</w>": 7648,
  "platform</w>": 7649,
  "circuit</w>": 7650,
  "Sho": 7651,
  "seriously</w>": 7652,
  "joined</w>": 7653,
  "English</w>": 7654,
  "name.</w>": 7655,
  "person.</w>": 7656,
  "illegal</w>": 7657,
  "techno": 7658,
  "competitions</w>": 7659,
  "quic": 7660,
  "ises</w>": 7661,
  "ice,</w>": 7662,
  "level,</w>": 7663,
  "ements</w>": 7664,
  "Tell</w>": 7665,
  "Wrest": 7666,
  "later.</w>": 7667,
  "Kei": 7668,
  "Álvarez</w>": 7669,
  "*</w>": 7670,
  "memory</w>": 7671,
  "pad</w>": 7672,
  "proces": 7673,
  "things,</w>": 7674,
  "OUT</w>": 7675,
  "slower</w>": 7676,
  "C.</w>": 7677,
  "Midd": 7678,
  "communic": 7679,
  "Fulton</w>": 7680,
  "mobi": 7681,
  "manage</w>": 7682,
  "ines</w>": 7683,
  "remain</w>": 7684,
  "defended</w>": 7685,
  "mandatory</w>": 7686,
  "Commonwealth</w>": 7687,
  "func": 7688,
  "shield</w>": 7689,
  "slo": 7690,
  "squared</w>": 7691,
  "illian</w>": 7692,
  "shine</w>": 7693,
  "trics</w>": 7694,
  "Abdull": 7695,
  "bag,</w>": 7696,
  "prior</w>": 7697,
  "braw": 7698,
  "deserves</w>": 7699,
  "pho": 7700,
  "often": 7701,
  "ces.</w>": 7702,
  "VE</w>": 7703,
  "ors.</w>": 7704,
  "losop": 7705,
  "triple</w>": 7706,
  "checking</w>": 7707,
  "Scot": 7708,
  "Oh.</w>": 7709,
  "Mason</w>": 7710,
  "DS</w>": 7711,
  "feedback</w>": 7712,
  "tactical</w>": 7713,
  "lifts</w>": 7714,
  "requires</w>": 7715,
  "jaw</w>": 7716,
  "numb": 7717,
  "insane</w>": 7718,
  "opposit": 7719,
  "intelligent</w>": 7720,
  "has.</w>": 7721,
  "Jim</w>": 7722,
  "manipul": 7723,
  "thering</w>": 7724,
  "mir</w>": 7725,
  "lapel</w>": 7726,
  "Always</w>": 7727,
  "underhook</w>": 7728,
  "are,</w>": 7729,
  "intimid": 7730,
  "establish</w>": 7731,
  "brutal</w>": 7732,
  "ONE</w>": 7733,
  "survive</w>": 7734,
  "titude</w>": 7735,
  "yet,</w>": 7736,
  "million": 7737,
  "&amp": 7738,
  "cade": 7739,
  "OK</w>": 7740,
  "knockouts.</w>": 7741,
  "integr": 7742,
  "superi": 7743,
  "belt,</w>": 7744,
  "hole</w>": 7745,
  "Woo": 7746,
  "manuel</w>": 7747,
  "seat</w>": 7748,
  "looping</w>": 7749,
  "openings</w>": 7750,
  "Light</w>": 7751,
  "Def": 7752,
  "dollar</w>": 7753,
  "gas,</w>": 7754,
  "pattern</w>": 7755,
  "Domin": 7756,
  "una</w>": 7757,
  "sust": 7758,
  "foundation</w>": 7759,
  "predictable</w>": 7760,
  "Dri": 7761,
  "countered</w>": 7762,
  "sparring,</w>": 7763,
  "imo</w>": 7764,
  "sanction": 7765,
  "thinking,</w>": 7766,
  "adjustments</w>": 7767,
  "of,</w>": 7768,
  "youth</w>": 7769,
  "lder</w>": 7770,
  "conven": 7771,
  "tele": 7772,
  "St</w>": 7773,
  "Carol": 7774,
  "uela</w>": 7775,
  "gen</w>": 7776,
  "circum": 7777,
  "believes</w>": 7778,
  "ple": 7779,
  "Ref": 7780,
  "naked</w>": 7781,
  "Flow</w>": 7782,
  "cross.</w>": 7783,
  "Many</w>": 7784,
  "tomorrow.</w>": 7785,
  "undefe": 7786,
  "concep": 7787,
  "Holl": 7788,
  "lst</w>": 7789,
  "Crawford.</w>": 7790,
  "Ama": 7791,
  "Force</w>": 7792,
  "canvas</w>": 7793,
  "jumped</w>": 7794,
  "full-": 7795,
  "five,</w>": 7796,
  "vertical</w>": 7797,
  "cardi": 7798,
  "trade</w>": 7799,
  "helpful</w>": 7800,
  "mode</w>": 7801,
  "ousness</w>": 7802,
  "strategies</w>": 7803,
  "pend": 7804,
  "ado": 7805,
  "Francis</w>": 7806,
  "fans.</w>": 7807,
  "homet": 7808,
  "finger</w>": 7809,
  "blah</w>": 7810,
  "Jab": 7811,
  "telegra": 7812,
  "coach.</w>": 7813,
  "Only</w>": 7814,
  "somewhat</w>": 7815,
  "ful,</w>": 7816,
  "teacher</w>": 7817,
  "ble,</w>": 7818,
  "50/": 7819,
  "artist</w>": 7820,
  "pool</w>": 7821,
  "WHA": 7822,
  "ascin": 7823,
  "Ga": 7824,
  "dressing</w>": 7825,
  "own,</w>": 7826,
  "Hor": 7827,
  "distance,</w>": 7828,
  "honest,</w>": 7829,
  "generation</w>": 7830,
  "mind.</w>": 7831,
  "boxer,</w>": 7832,
  "alive</w>": 7833,
  "Afr": 7834,
  "entertaining</w>": 7835,
  "pointed</w>": 7836,
  "teams</w>": 7837,
  "mat.</w>": 7838,
  "pack</w>": 7839,
  "philosop": 7840,
  "Coming</w>": 7841,
  "town</w>": 7842,
  "Lov": 7843,
  "Thomp": 7844,
  "One.</w>": 7845,
  "Aaron</w>": 7846,
  "Isaac</w>": 7847,
  "misses</w>": 7848,
  "mechanics</w>": 7849,
  "Sprin": 7850,
  "sport,</w>": 7851,
  "scenario</w>": 7852,
  "flaw": 7853,
  "retired</w>": 7854,
  "paper</w>": 7855,
  "tight.</w>": 7856,
  "bow</w>": 7857,
  "Box</w>": 7858,
  "Collins</w>": 7859,
  "afford</w>": 7860,
  "college</w>": 7861,
  "ins": 7862,
  "fault</w>": 7863,
  "bill": 7864,
  ".,</w>": 7865,
  "Ath": 7866,
  "heels</w>": 7867,
  "ye": 7868,
  "failed</w>": 7869,
  "safety</w>": 7870,
  "London</w>": 7871,
  "Luis</w>": 7872,
  "reached</w>": 7873,
  "1-": 7874,
  "Never</w>": 7875,
  "pants</w>": 7876,
  "measure</w>": 7877,
  "500</w>": 7878,
  "They've</w>": 7879,
  "arri": 7880,
  "trapp": 7881,
  "12th</w>": 7882,
  "Don</w>": 7883,
  "medalist</w>": 7884,
  "mond</w>": 7885,
  "Red</w>": 7886,
  "erson</w>": 7887,
  "introducing</w>": 7888,
  "target.</w>": 7889,
  "Before</w>": 7890,
  "home": 7891,
  "se?</w>": 7892,
  "goes.</w>": 7893,
  "ahead.</w>": 7894,
  "length</w>": 7895,
  "Cr": 7896,
  "Chan": 7897,
  "thered</w>": 7898,
  "finds</w>": 7899,
  "HIM</w>": 7900,
  "Bellator</w>": 7901,
  "guill": 7902,
  "song</w>": 7903,
  "embarr": 7904,
  "complic": 7905,
  "kie</w>": 7906,
  "Star": 7907,
  "bouts</w>": 7908,
  "promote</w>": 7909,
  "joke</w>": 7910,
  "mosp": 7911,
  "icio</w>": 7912,
  "lish": 7913,
  "Spe": 7914,
  "capacity</w>": 7915,
  "trick</w>": 7916,
  "ators</w>": 7917,
  "Best</w>": 7918,
  "disciplined</w>": 7919,
  "hale</w>": 7920,
  "ev</w>": 7921,
  "contender</w>": 7922,
  "dding</w>": 7923,
  "atmosp": 7924,
  "boys.</w>": 7925,
  "Caleb</w>": 7926,
  "RA": 7927,
  "junior</w>": 7928,
  "fighting,</w>": 7929,
  "slap</w>": 7930,
  "il.</w>": 7931,
  "slam</w>": 7932,
  "noise</w>": 7933,
  "Cruz.</w>": 7934,
  "interest</w>": 7935,
  "isol": 7936,
  "believed</w>": 7937,
  "proven</w>": 7938,
  "batter": 7939,
  "cheap</w>": 7940,
  "phon": 7941,
  "chopping</w>": 7942,
  "weather</w>": 7943,
  "sky</w>": 7944,
  "divisions</w>": 7945,
  "/</w>": 7946,
  "tired.</w>": 7947,
  "Man</w>": 7948,
  "sme": 7949,
  "resour": 7950,
  "TS</w>": 7951,
  "chin": 7952,
  "shoulder.</w>": 7953,
  "market</w>": 7954,
  "BY</w>": 7955,
  "Power</w>": 7956,
  "footwork.</w>": 7957,
  "considering</w>": 7958,
  "experience,</w>": 7959,
  "suck</w>": 7960,
  "Los</w>": 7961,
  "champ.</w>": 7962,
  "law</w>": 7963,
  "later,</w>": 7964,
  "line,</w>": 7965,
  "protec": 7966,
  "cuts</w>": 7967,
  "rated</w>": 7968,
  "tons</w>": 7969,
  "Bam</w>": 7970,
  "ed?</w>": 7971,
  "12.</w>": 7972,
  "ze.</w>": 7973,
  "29</w>": 7974,
  "said.</w>": 7975,
  "ard,</w>": 7976,
  "ca</w>": 7977,
  "foun": 7978,
  "hu</w>": 7979,
  "six,</w>": 7980,
  "ninth</w>": 7981,
  "Three.</w>": 7982,
  "owned</w>": 7983,
  "lement": 7984,
  "ense</w>": 7985,
  "thri": 7986,
  "signs</w>": 7987,
  "Devin</w>": 7988,
  "spine</w>": 7989,
  "Nel": 7990,
  "entry</w>": 7991,
  "Frank": 7992,
  "mini": 7993,
  "effective.</w>": 7994,
  "ovi": 7995,
  "opponents.</w>": 7996,
  "mirror</w>": 7997,
  "on-": 7998,
  "desire</w>": 7999
}